#version: 0.2
t h
i n
a n
e r
e n
e s
c o
a r
q u
a s</w>
a l
o r
o s</w>
d e</w>
t o</w>
th e</w>
t i
t e
r e
i s
o u
o n
i s</w>
qu e</w>
d o</w>
e l
a m
t r
i t
ã o</w>
e s</w>
o s
a s
a t</w>
a d
in g</w>
an d</w>
o f</w>
en t
i c
e r</w>
p r
e m</w>
m a
s o
i d
a c
a t
a r</w>
o r</w>
o u</w>
s e
p ar
co m
d i
u m
i n</w>
es t
co n
l e
u n
o c
a b
i l
th at</w>
a v
u s
o ,</w>
r i
m e
w h
o l
c i
u m</w>
d e
u r
l i
v er
n o
o n</w>
o .</w>
u l
s e</w>
p l
c a
' s</w>
i m
o d
c h
p e
e m
i r
um a</w>
a l</w>
par a</w>
s t
a ,</w>
s o</w>
y ou</w>
n d</w>
e ,</w>
a m</w>
l y</w>
p er
a .</w>
e d</w>
e x
T h
th e
b e
w e</w>
t er
es s
A nd</w>
a g
ent e</w>
i t</w>
pr o
d a</w>
in g
f or
p o
i g
n ão</w>
r o
v e
l o
m e</w>
i a</w>
s ,</w>
b r
v oc
v e</w>
th is</w>
a ti
an do</w>
s u
er e</w>
n e
e .</w>
a p
m u
a ç
h av
co m</w>
s .</w>
am os</w>
e u</w>
ou t</w>
h o
a n</w>
n o</w>
u t</w>
t o
g r
ar e</w>
d es
y ,</w>
w as</w>
g o
f or</w>
a z
e n</w>
k e</w>
d o
p or
is t
e c
s i
l e</w>
hav e</w>
com o</w>
ou r</w>
en te
es ,</w>
n a</w>
t u
an t
w it
es .</w>
m os</w>
w or
al ly</w>
in h
voc ê</w>
wit h</w>
ma is</w>
s a
m o
g u
en t</w>
p or</w>
p re
b e</w>
v i
e t
r es
p en
al l</w>
' t</w>
v er</w>
i to</w>
i r</w>
p es
d is
the y</w>
te r</w>
on e</w>
os ,</w>
ca n</w>
ab out</w>
p os
u t
r e</w>
wh at</w>
f ic
an d
i z
y .</w>
a de</w>
m ente</w>
f er
as ,</w>
os .</w>
f az
m or
c ri
e d
g h
s h
ó s</w>
a do</w>
m an
te d</w>
f e
w e
S o</w>
no t</w>
l d</w>
pes so
m as</w>
u s</w>
w a
as .</w>
a qu
ti c
t od
pl e</w>
E n
f o
g o</w>
m a</w>
e ar
us e</w>
' re</w>
a d</w>
c e</w>
l u
m en
b o
t a
ver y</w>
v id
m y</w>
ad a</w>
f ro
pe o
s ão</w>
ti on
ã o,</w>
g i
c ar
õ es</w>
. "</w>
us t</w>
aç ão</w>
th er</w>
ê s</w>
fro m</w>
g e
I '
un d
th er
y ou
el es</w>
com p
co r
is so</w>
En t
en d
es e</w>
el e</w>
co l
s er
li ke</w>
f i
c e
te s</w>
t e</w>
p a
k no
te m</w>
mu ito</w>
co is
b ut</w>
n ci
br e</w>
n os
it 's</w>
el a</w>
th at
por t
as s
v ol
te m
in ter
f r
s tr
so bre</w>
c er
h e
th ing</w>
j ust</w>
c re
Th e</w>
n os</w>
t ,</w>
o m
est á</w>
am ente</w>
k ing</w>
peo ple</w>
f in
m os
h o</w>
n i
n ós</w>
ca use</w>
inh a</w>
ç ão</w>
E u</w>
ho w</w>
ou ld</w>
th in
t ur
an s
p od
o g
ati on
en ti
m in
pesso as</w>
c l
re al
i f</w>
o b
h e</w>
B ut</w>
th ese</w>
t al
v el
an t</w>
em os</w>
m es
b i
M as</w>
ou tr
b y</w>
d os</w>
an ç
a in
ê nci
al g
id ade</w>
ti on</w>
con tr
go ing</w>
é m</w>
u d
a o</w>
ti v
h er
th ing
l l</w>
is ,</w>
ad os</w>
pr i
qu ando</w>
ig h
lo o
en tr
c ul
ic h</w>
en do</w>
wh en</w>
c r
t a</w>
c h</w>
at e</w>
s er</w>
w ,</w>
p o</w>
pro b
t or
pr es
W h
h as</w>
h ad</w>
W e</w>
so me
be cause</w>
l es</w>
al l
faz er</w>
mor e</w>
t .</w>
te c
s im
i x
id ad
ma g
N o
t s</w>
wh ich</w>
t 's</w>
d as</w>
i on
c is
y our</w>
av a</w>
m ent
the ir</w>
it y</w>
y ear
d ,</w>
ge t</w>
fo i</w>
u p</w>
m er
s ab
c am
an g
w ere</w>
em ,</w>
t en
w ould</w>
m un
o p
t am
e ir
e 's</w>
d on
di f
voc ês</w>
es se</w>
est ão</w>
d .</w>
th ere</w>
E st
er a</w>
u c
il h
0 0</w>
gh t</w>
en to</w>
thin k</w>
ente ,</w>
n 't</w>
nos s
po de</w>
ess a</w>
f ac
ã o.</w>
il l</w>
di z
á ri
re ally</w>
m o</w>
el l
f al
wh o</w>
m ar
Ent ão</w>
u b
a is</w>
se e</w>
p on
I' m</w>
ati on</w>
o ther</w>
g en
in to</w>
id e
ic a</w>
- l
m on
est e</w>
I t's</w>
is .</w>
ac tu
Th is</w>
ant e</w>
s el
tr i
er ,</w>
os e</w>
a f
su a</w>
b u
c as
Q u
e ç
s t</w>
l it
se u</w>
so me</w>
t h</w>
f u
por que</w>
ó ri
wh ere</w>
a tr
qu er
w n</w>
ab al
al .</w>
no v
h ap
a u
c al
co ul
an os</w>
im port
es s</w>
con t
ou nd</w>
v is
o f
u p
ol og
b ac
b as
or a</w>
e y</w>
tr abal
c an
th em</w>
al ,</w>
ing ,</w>
t w
or es</w>
is so
don 't</w>
t ing</w>
f a
the n</w>
p i
s ur
I t</w>
est a</w>
pen s
that 's</w>
m el
p ac
for ma
actu ally</w>
Y ou</w>
V oc
wa y</w>
i mag
tod os</w>
st ar
w ill</w>
en as</w>
a y</w>
mu it
so ci
l ar
prob le
I s
ve n</w>
I n
kno w</w>
o d</w>
h á</w>
h um
m i
T E
ing .</w>
es t</w>
a te
s ti
ver d
f ir
p ol
ou r
coul d</w>
ar .</w>
c o</w>
k ,</w>
pre cis
w ant</w>
ma ke</w>
g an
g h</w>
ênci a</w>
tam b
it e</w>
t re
be en</w>
ar ,</w>
g re
a con
p le
k in
er s</w>
p h
el as</w>
a y
ou gh</w>
pr od
se gu
ab le</w>
de mos</w>
me ir
con s
le d</w>
com eç
r a
se ,</w>
c ur
ve l</w>
k s</w>
ou n
re l
en c
an to</w>
er .</w>
f un
li v
ar am</w>
h ist
C h
ex per
m inha</w>
in e</w>
cois as</w>
s y
d s</w>
th an</w>
er r
t le</w>
ve z</w>
tr ans
c a</w>
s pe
mos t</w>
' ve</w>
ati v
N ão</w>
di a</w>
l on
g un
me u</w>
d u
mel h
com e</w>
on de</w>
ma i
real mente</w>
it .</w>
e i</w>
di fer
pl an
ar i
est ava</w>
dif fer
s on
es tr
ent ão</w>
am ent
ente s</w>
k ed</w>
s en
as t</w>
pri meir
qu er</w>
ch am
E s
ap enas</w>
ad o.</w>
th ose</w>
thing s</w>
ac h
am e</w>
mun do</w>
ver s
te mos</w>
el o</w>
en ce</w>
li f
b ri
e f
go t</w>
some thing</w>
pr oc
at 's</w>
ag e</w>
m il
g e</w>
al go</w>
T r
es p
ess es</w>
Ent ão,</w>
ma n</w>
e v
tamb ém</w>
a j
te .</w>
in v
h is</w>
lit tle</w>
ente .</w>
Th ey</w>
ess as</w>
te ,</w>
igh t</w>
as si
co s</w>
m ul
? "</w>
i o</w>
fir st</w>
ch ang
T al
ti me</w>
comp le
I n</w>
e g
ne w</w>
pod em</w>
ol h
we 're</w>
pod er
Voc ê</w>
TE D</w>
t ent
be t
qu al
al so</w>
e t</w>
b er
pr ó
hum an
2 0
mu d
mes mo</w>
f am
ci on
d ic
me ,</w>
p ul
des ig
í ci
loo k</w>
d r
tw o</w>
aqu i</w>
ad as</w>
id ,</w>
b em</w>
at ur
re c
at é</w>
in c
b re
year s</w>
e ver
un i
y s</w>
on ly</w>
y ing</w>
the y
i ,</w>
t ar
E le</w>
v ir
p t
or d
i c</w>
p ou
pro j
in do</w>
no w</w>
i d</w>
trabal h
A g
a i</w>
h er</w>
le v
un s</w>
m od
al mente</w>
th r
em .</w>
w i
b od
bu il
e con
ch o
co un
o ver</w>
se us</w>
d id
N ós</w>
wor l
k .</w>
f il
cois a</w>
s or
an c
t os</w>
gr an
ne c
e ven</w>
ou s</w>
á -l
ne ed</w>
ti m
kin d</w>
ta ke</w>
s ig
mu ch</w>
th ou
c é
st or
bac k</w>
b il
ve z
pl ac
po demos</w>
1 9
so l
b l
hap pen
a ted</w>
an tes</w>
an i
ex pl
u re
n olog
man y</w>
con str
ti t
you 're</w>
ca p
s is
er g
qu i
m .</w>
for ma</w>
s in
el i
E les</w>
p al
it s</w>
ell ,</w>
verd ad
g er
me .</w>
ad or
h ere</w>
j o
hist óri
Wh at</w>
th re
par ec
h ar
w ar
lo t</w>
S e</w>
v al
ut ur
aç ões</w>
c ent
sim pl
est amos</w>
t ão</w>
mo v
te l
is to</w>
h u
s ho
it ,</w>
ever y
m ,</w>
lu g
sa id,</w>
und er
sh e</w>
p ic
an y</w>
c ada</w>
Tr ans
v en
qu anto</w>
f l
wor ld</w>
mos tr
men to</w>
S ub
im ent
su b
il l
Tal k</w>
ol d</w>
m ent</w>
v amos</w>
se d</w>
po is</w>
í s
ther e's</w>
am ento</w>
vid a</w>
v ai</w>
e l</w>
h i
es ti
cri pt
s em</w>
in forma
par ti
E l
tit les</w>
t ar</w>
w o
in s
ê m</w>
t inha</w>
C om
cript :</w>
Trans cript:</w>
Sub titles</w>
re d
b er</w>
con segu
p ass
ab il
in d
er am</w>
tor n
0 00</w>
thr ough</w>
v o
A l
ac h</w>
le ar
ti ca
to do</w>
an ti
or a,</w>
te ch
as e</w>
wor k</w>
en ç
e y
cri anç
ter i
h a</w>
lo w
S o,</w>
ti po</w>
noss a</w>
pr ess
ic al</w>
ad o,</w>
c u
qu e,</w>
nos so</w>
tu do</w>
pro f
l y,</w>
ar ound</w>
differ ent</w>
ri ght</w>
r u
n as</w>
in a</w>
e very</w>
fic i
h ,</w>
gran de</w>
fu l</w>
su as</w>
di d</w>
No w,</w>
ti ve</w>
p ut</w>
í vel</w>
sy s
um as</w>
a in</w>
m é
b a
or gan
pos s
im ,</w>
me an
d ing</w>
pe qu
en vol
p elo</w>
they 're</w>
p ela</w>
ic o</w>
di re
le g
ain da</w>
b le</w>
I f</w>
en g
g et
f ec
kno w,</w>
an y
sis te
H o
b us
pe c
P or
ç ões</w>
be ing</w>
an k</w>
en contr
av am</w>
bod y</w>
n or
qu es
Is so</w>
s ame</w>
pro gr
es col
em pl
tr y</w>
ar r
per gun
m ilh
h el
- se</w>
res pon
t êm</w>
par te</w>
alg uns</w>
go od</w>
ch il
co ur
on s</w>
le .</w>
constr u
h or
s ó</w>
exper i
av e</w>
am ,</w>
ac ion
j á</w>
co .</w>
l oc
A s</w>
tu re
qu al</w>
es per
D e
j a</w>
B em,</w>
No w</w>
entr e</w>
A n
ni fic
c id
po w
lo b
ser v
m is
ic e</w>
i .</w>
n ing</w>
prod u
cal led</w>
al iz
tem po</w>
ent s</w>
so ,</w>
ag ora</w>
o k</w>
e p
pos i
tion .</w>
go ver
qual quer</w>
me m
1 0</w>
x im
at ing</w>
wi th
g os
a y,</w>
. .
el l</w>
acon tec
isso .</w>
d er
ol e</w>
" .</w>
m ente,</w>
c in
s al
tod as</w>
in te
le ,</w>
d el
cont in
des co
cam e</w>
de d</w>
se m
r is
vol u
co ,</w>
sig nific
am .</w>
m und
eir a</w>
econ om
P or</w>
ad a.</w>
or ,</w>
tion ,</w>
H e</w>
ed ,</w>
i am</w>
pro v
en erg
qu is
pequ en
W e
l in
P ar
é s</w>
I' ve</w>
on ,</w>
p as
a pr
w r
ho j
do ing</w>
el e
f re
ar es</w>
t y</w>
ex empl
ag em</w>
acon te
é ri
do wn</w>
í amos</w>
m ic
vi v
â n
that ,</w>
j un
re g
ar y</w>
do is</w>
ed .</w>
assi m</w>
t o,</w>
W ell,</w>
Th at's</w>
tion s</w>
o l</w>
pres ent
cl ar
an o</w>
r os
w n
li on</w>
under st
ma de</w>
pos si
col oc
end er</w>
ma t
ex am
s ci
l a
ri gh
pl ic
B e
m s</w>
ti c</w>
t o.</w>
f ul
peo ple
s enti
d ur
you .</w>
thre e</w>
de v
de ix
b ar
or .</w>
te ll</w>
fun cion
s it
fin d</w>
alg umas</w>
n ed</w>
j e
pou co</w>
ad or</w>
on .</w>
c ent</w>
Com o</w>
ch eg
wa ys</w>
est ou</w>
m á
po in
an ce</w>
p e</w>
w s</w>
h ec
am ente,</w>
v ou</w>
se g
i es</w>
anç a</w>
men os</w>
i v
g lob
tic a</w>
t as</w>
f ri
li g
isso ,</w>
wh y</w>
d at
qu e
all y,</w>
si de</w>
hu man</w>
tur e</w>
did n't</w>
í n
E m</w>
f el
diz er</w>
w at
Qu ando</w>
entr o</w>
f utur
imag in
tem p
so lu
g l
k es</w>
lif e</w>
h ear
en h
u al</w>
.. .</w>
tal k</w>
it y.</w>
es pe
s m
b an
p ir
tr ês</w>
fe it
di g
ú l
noss os</w>
st u
ag ain
ad ores</w>
k e
b eli
sa y</w>
be for
per cent</w>
' ll</w>
an os,</w>
a ?</w>
sh ould</w>
ti r
m ight</w>
af ter</w>
contin u
w .</w>
ac ho</w>
, "</w>
gi ve</w>
tr a
sh i
u sed</w>
c us
idad es</w>
com un
al s</w>
o wn</w>
ist a</w>
v es</w>
c li
aç ão.</w>
n atur
w ent</w>
ter r
su per
l ast</w>
A mer
verdad e,</w>
Th ere</w>
en ,</w>
on g</w>
al i
m ã
star ted</w>
per ce
p ub
we 've</w>
po pul
st ud
ol o
úl ti
quer o</w>
me n</w>
idad e.</w>
l h
ex ist
o m</w>
N e
so n</w>
outr as</w>
par tic
res ul
g ro
tech nolog
me io</w>
d re
f iz
en s</w>
voc ê
Es s
ri g
des envol
ou s
con hec
su c
O n
fam il
en d</w>
v í
de pois</w>
ing u
A s
z a</w>
2 0</w>
c res
se .</w>
it y,</w>
Th ank</w>
Ag ora,</w>
P o
M ar
n ex
can 't</w>
im .</w>
fa z</w>
es so</w>
aç ão,</w>
n um
i as</w>
er e's</w>
ation .</w>
um ent
to ge
outr o</w>
id a</w>
ten ho</w>
fr ic
or ia</w>
ation s</w>
un ca</w>
comp ut
spe ci
for m
de m
C on
in di
á gu
cé re
o ther
est ar</w>
fal ar</w>
sel f
20 0
organ iz
gre at</w>
, 000</w>
ne ver</w>
de cid
f und
i ti
melh or</w>
bi g</w>
M u
gen er
siste ma</w>
plan et
ã o
5 0</w>
com mun
re ce
pr e</w>
ou t
mai or</w>
vel .</w>
lo w</w>
pe g
pe d</w>
olo gi
cére br
muit as</w>
s how</w>
ca us
outr a</w>
le f
Est e</w>
so u</w>
ation ,</w>
re ad
ic i
e as
e -
ad i
à s</w>
se i</w>
idad e,</w>
s cho
d ist
ur e</w>
d o.</w>
a os</w>
primeir a</w>
per son
ed u
tr u
f at
m us
av el
ve is</w>
tod a</w>
par t</w>
chang e</w>
sti ll</w>
de vel
muit os</w>
inter ess
aç o</w>
El a</w>
e ver</w>
verd ade</w>
for am</w>
a y.</w>
bet we
ad r
du as</w>
al gu
t ly</w>
te n</w>
re d</w>
that .</w>
ma teri
re al</w>
e j
noss as</w>
históri a</w>
Wh en</w>
trabal ho</w>
nec ess
atr av
espe ci
at ure
is h
li k
fe w</w>
star t</w>
pr in
d ay</w>
r ic
an h
be g
O s</w>
nex t</w>
outr os</w>
f lu
est as</w>
Th at</w>
prod uc
im os</w>
in cre
th is.</w>
edu ca
ú mer
a k
an other</w>
sa y,</w>
bas ic
real iz
w an
o v
e ach</w>
b it</w>
N o</w>
t amente</w>
betwe en</w>
partic ul
sem pre</w>
mul her
ba ix
ab or
faz endo</w>
Ho w</w>
tal vez</w>
aj ud
ve .</w>
ex is
us ,</w>
n unca</w>
y e
ar ti
d ol
me tr
lon g
sti tu
so .</w>
poder ia</w>
U ni
b or
n er
In ter
vez es</w>
y s
o per
l á</w>
0 0
ide a</w>
ne g
en ci
s k
Amer ic
pró xim
le c
ú s
i a,</w>
ta in
s p
loo king</w>
N a</w>
ar ia</w>
U m</w>
aqu ele</w>
õ es.</w>
su p
ma l</w>
s pac
car r
n ó
A qu
mo ment
do es
ad a,</w>
p s</w>
ci p
w on
atr á
tim es</w>
me di
tr at
d ar</w>
com es</w>
r az
ári o</w>
desig n</w>
â nci
re as
for ç
c ab
us .</w>
S o
aqu ela</w>
do es</w>
e ?</w>
d o,</w>
uni ver
sys tem
s te
n úmer
crianç as</w>
gr and
ci r
an te.</w>
d er</w>
e p</w>
sor t</w>
lug ar</w>
liv r
it a</w>
t y
k id
Por que</w>
g ar
se con
pr is
gover n
fe ito</w>
el ec
bet ter</w>
f as
te x
A r
de fin
l á
im ento</w>
desco bri
progr am
e volu
import ant</w>
i a.</w>
bri g
s us
i on</w>
U ma</w>
he al
oc r
p an
j ec
ad os.</w>
v ão</w>
l ess</w>
H á</w>
does n't</w>
man eira</w>
th em.</w>
gr ap
e ve</w>
de pen
atrav és</w>
an os.</w>
f ound</w>
primeir o</w>
h and
mar k
ar e
of f</w>
Be cause</w>
a is,</w>
Voc ês</w>
id er
pal av
is h</w>
pens ar</w>
an gu
ç ão.</w>
us ing</w>
r a</w>
algu ém</w>
wor k
o ver
n ologi
qu em</w>
proble ma</w>
sel f</w>
seg ur
wan ted</w>
d ro
te ly</w>
eir o</w>
li m
th is,</w>
soci al</w>
enti st
d entro</w>
w as
a is.</w>
ing s</w>
worl d.</w>
lo g
w al
me t
a -
h os
cri ar</w>
Is to</w>
3 0</w>
de ver
ári os</w>
d ade</w>
ú n
ti p
" ,</w>
thou ght</w>
di a,</w>
Est a</w>
wh ole</w>
fr on
õ es,</w>
j og
é ,</w>
pre t
b on
ma .</w>
inter est
us ar</w>
m al
ti me,</w>
ma y</w>
d en
tr ying</w>
oc e
U n
o t
milh ões</w>
c all</w>
hav ia</w>
cul tur
befor e</w>
ab ly</w>
f oc
me us</w>
ch e
comp u
O brig
cor r
se ja</w>
cam inh
proj ec
it al</w>
sa id</w>
a :</w>
E x
ter min
n um</w>
ac k</w>
in st
t or</w>
ne ur
f ol
wa y,</w>
pl ant
h ou
al ways</w>
o pe
f ig
w ing</w>
e qui
es tes</w>
ê -l
d ados</w>
á s
p at
f av
0 ,</w>
ati ve</w>
am bi
alg uma</w>
min ut
h al
ç ão,</w>
ci mento</w>
d ó
c ad
ma y
an s</w>
á re
u ,</w>
n ada</w>
vi ol
ic k
ce p
v em</w>
dis se,</w>
d inh
fac t,</w>
underst and</w>
v a</w>
em pres
ac ab
R e
pes quis
de ,</w>
a ir
est ud
wor king</w>
mil lion</w>
me dic
ter s</w>
d oc
pró pri
p ag
le m
s ent
desig n
s endo</w>
wh at's</w>
precis amos</w>
sim ,</w>
nolog ia</w>
ir a</w>
est avam</w>
t an
T od
plac e</w>
cer ca</w>
mes ma</w>
ti me.</w>
th .</w>
th ,</w>
lon g</w>
t ?</w>
t ant
a ut
ess .</w>
on g
d ri
con nec
f os
c er</w>
am b
ac red
dis se</w>
r an
tic o</w>
l ul
Inter ne
thing .</w>
li gh
des se</w>
it os</w>
b ol
Ag ora</w>
pesso a</w>
li ve</w>
ide ia</w>
ser ia</w>
m y
i l</w>
her e,</w>
í li
tica l</w>
pol í
tec nologia</w>
c entr
mund o.</w>
d n't</w>
am ig
' d</w>
to ok</w>
Th ere's</w>
t s.</w>
u g
cre ate</w>
pro te
le t</w>
pa í
é ci
f ar
ch i
ch ar
TE D
h igh
E ,</w>
1 00</w>
ad os,</w>
vi e
ex tre
p u
n uma</w>
contr ol
l ic
ation al</w>
fe el</w>
m ús
com ing</w>
port un
it ar</w>
b at
des a
ter n
ess ,</w>
ma ch
se x
on e.</w>
au ti
atr o</w>
á vel</w>
you ,</w>
ther e.</w>
r á
fac e</w>
con he
be come</w>
D e</w>
beli eve</w>
dó lar
al is
mai oria</w>
ec e</w>
con vers
pa ís
f our</w>
br ain</w>
bo o
lo ve</w>
se qu
t s,</w>
il e</w>
g ir
or i
e qu
ar em</w>
ou gh
s ing
Y ou
el y</w>
import ante</w>
fa to</w>
err a</w>
hel p</w>
glob al</w>
fic ar</w>
proj et
her e.</w>
tr ic
ma ,</w>
l and
cour se,</w>
w in
b ro
b al
or y</w>
difer entes</w>
qu ase</w>
b ur
res pos
es cre
I' d</w>
ob serv
lit er
get ting</w>
and o.</w>
M y</w>
ch .</w>
est á
sit u
n ature
may be</w>
ma king</w>
id os</w>
cham ado</w>
ter ,</w>
O K
pl ay
hi m</w>
en quanto</w>
Th ese</w>
t a.</w>
dat a</w>
t in
p in
qu ite</w>
parec e</w>
id enti
gr ou
ar mos</w>
an im
ans w
pac i
de cis
d ay
ó r
so f
on e,</w>
G o
ye ar</w>
avel mente</w>
an te,</w>
ent .</w>
vel ,</w>
ro b
wh e
n em</w>
ô ni
to o</w>
wa y.</w>
d one</w>
stor y</w>
do wn
v ari
r ad
l ing</w>
o ?</w>
fam íli
cor re
ter .</w>
n este</w>
sys tem</w>
exper iment
poin t</w>
qu ais</w>
l em</w>
par t
c ell
th em,</w>
har d</w>
dol lar
n am
stu f
enç a</w>
On e</w>
mean s</w>
us tr
s ?</w>
Ess a</w>
J o
pow er</w>
mod el
fi ve</w>
l at
es c
S u
dis se
Th ey
and o,</w>
alg um</w>
I' ll</w>
we e
co ver
tar ia</w>
prob lem</w>
Ne w</w>
i u</w>
hoj e</w>
simpl es
sa y
worl d,</w>
com pr
cé lul
cons ci
b en
id é
at t
indi vid
pod er</w>
p er</w>
P e
x i
p el
l ado</w>
prob ably</w>
é cul
Par a</w>
vid e
si do</w>
bus in
dif íci
with out</w>
mo ve</w>
N or
r ap
aqu i,</w>
resul t
ord in
ênci as</w>
dem ocr
ser á</w>
mulher es</w>
c el
ti es</w>
nov o</w>
no w,</w>
in e
Aqu i</w>
pos so</w>
or ig
num ber</w>
inh as</w>
ma kes</w>
expl or
co st
res ol
E ur
v il
inc lu
esp éci
tal king</w>
ou l
re li
ac e
a h
qu atro</w>
or s</w>
a í</w>
al mente,</w>
energ ia</w>
as k</w>
ou t,</w>
en or
B r
di a.</w>
ac t</w>
technolog y</w>
vir on
li ght</w>
l id
enc e.</w>
cons um
coun tri
to ?</w>
se man
pon to</w>
en .</w>
ac ros
se gun
l y.</w>
c le
is t</w>
diz er,</w>
p ú
We 're</w>
F o
for m</w>
precis a</w>
estr utur
grand es</w>
wa ter</w>
o -
br ain
t anto</w>
ri a</w>
for t
comple x
ver ,</w>
you n
t est
is e</w>
min u
sm all</w>
no t
con di
C o
fr ica</w>
tiv o</w>
b est</w>
p ati
buil d</w>
au to
p ho
n enh
mostr ar</w>
er o</w>
A fric
t al</w>
ist as</w>
cérebr o</w>
signific a</w>
pret ty</w>
f ilh
a tes</w>
lar g
f á
at amente</w>
le ad
th em
aqu i.</w>
t oc
ent es.</w>
en viron
ç o</w>
b ilh
águ a</w>
w ell</w>
u do</w>
so mos</w>
S e
sa ú
is tr
fri end
com parti
enc e,</w>
númer o</w>
year s,</w>
wo men</w>
t old</w>
am er
O u
tion al</w>
ti l</w>
g as
er s,</w>
v ing</w>
a present
vol ta</w>
at óri
E ar
read y</w>
simples mente</w>
fic a</w>
c ar</w>
a w
he 's</w>
v ac
p ut
ou t.</w>
on es</w>
d in
b in
b ig
an ,</w>
acros s</w>
su ch</w>
res ear
pr im
u .</w>
ob rig
ph ys
produ z
exam ple
l abor
you 've</w>
ta in</w>
d ad
Es se</w>
Ch in
t inh
si on
fe z</w>
Y or
p ing</w>
ef fec
p ó
. 000</w>
n s</w>
í veis</w>
v ed</w>
ir o</w>
in cr
desenvol v
j or
thou gh
nov a</w>
m as
di o</w>
li z
ent ,</w>
ag o,</w>
mud ar</w>
exist e</w>
at u
scho ol
for a</w>
ac k
aconte ce</w>
re gi
o p</w>
lem br
ther e,</w>
tec nologi
se t</w>
os o</w>
ma r</w>
im pac
grap h
re f
toge ther</w>
p .</w>
st re
p oc
h ig
F or</w>
en sin
am os,</w>
1 5</w>
fat o,</w>
ex tra
de .</w>
am ente.</w>
tent ando</w>
l ine</w>
em pre
exempl o,</w>
i b
dur ante</w>
cons ider
all ,</w>
l os
a k</w>
he ad
hav ing</w>
w ell
p ur
spe c
per son</w>
dre n</w>
tent ar</w>
ex pec
El as</w>
mod er
fund ament
d essa</w>
thin king</w>
com par
qu estão</w>
co s,</w>
As sim,</w>
ênci a,</w>
it ing</w>
A :</w>
soci ed
gr ad
str uc
every thing</w>
clar o,</w>
a ix
depen d
z inh
se e
" S
ques tion</w>
mes m
pol i
começ ar</w>
co g
pe ti
od ,</w>
li ber
sa w</w>
people ,</w>
bo m</w>
of f
devel op
co u
in ,</w>
ca pac
c en
co s.</w>
gr u
fu i</w>
tic as</w>
mund o,</w>
en 't</w>
V amos</w>
qu ar
pow er
con ec
D N
thou s
cin co</w>
and s</w>
h on
c ân
Mu ito</w>
quer ia</w>
p ,</w>
secon d</w>
Wh y</w>
proj e
oc up
us ando</w>
kid s</w>
od .</w>
palav r
faz em</w>
olh ar</w>
hal f</w>
í vel.</w>
il .</w>
fel iz
pl ay</w>
mo do</w>
c at
r en
y ?</w>
prof ess
proble mas</w>
amer ic
lik e,</w>
chil dren</w>
j us
ênci a.</w>
r est
to p</w>
i ção</w>
aqu eles</w>
val u
se en</w>
re present
es ?</w>
ent ender</w>
buil ding</w>
a pro
l angu
g al
re mem
b em,</w>
U .
t a,</w>
p adr
A ll</w>
thing ,</w>
prov avelmente</w>
d s,</w>
vid a.</w>
m id
inv esti
contr a</w>
con f
país es</w>
mo mento</w>
L e
ári as</w>
pe di
co u</w>
ci do</w>
a par
tip os</w>
informa tion</w>
as tr
in ten
uni vers
a way</w>
v i</w>
ho men
di z</w>
as h
liv ing</w>
c ó
ar d</w>
f ant
me d</w>
ent ão,</w>
ci al</w>
ther ,</w>
po t
es cr
te ve</w>
h ol
disse :</w>
am az
má qu
mi l</w>
loc al</w>
tur a</w>
t on
co le
ânci a</w>
i ve</w>
O k
em o
re di
lif e.</w>
in tr
in stitu
S he</w>
ins te
abil ity</w>
se mos</w>
i re
ad v
as se</w>
pe d
ad ic
om ,</w>
gos taria</w>
mi m</w>
fe el
á r
reli gi
4 0</w>
fer r
fin al</w>
s id
mon th
al most</w>
acred it
loo ked</w>
s éri
s il
m b
lear n</w>
so mente</w>
pr a</w>
encontr ar</w>
lef t</w>
They 're</w>
vis ão</w>
c are</w>
constru ir</w>
caus a</w>
des de</w>
ro bo
le t's</w>
cab eç
kno w
ture .</w>
ingu ém</w>
et ,</w>
si on</w>
sen se</w>
ob vi
as ked</w>
tamb é
ho m
se c
o :</w>
incre di
ch all
ou ght</w>
di rec
sab emos</w>
h y
fic ul
bo th</w>
u ti
desa fi
fac t</w>
r .</w>
inter n
go es</w>
whe ther</w>
n esse</w>
hos p
i f
fin an
su fici
com m
tur n</w>
av er
and ,</w>
be auti
ar g
ó ci
n ic
Qu e</w>
sing le</w>
loo ks</w>
fi c</w>
v emos</w>
interest ing</w>
worl d
proble m
ass im,</w>
s os</w>
o k
ex atamente</w>
z e</w>
lon go</w>
k en</w>
en ough</w>
Est ados</w>
sel ves</w>
is su
d essas</w>
mé di
ke ep</w>
with in</w>
proc ur
d esses</w>
won der
li c</w>
su g
exis tem</w>
d ar
es cal
1 0
re volu
g am
bi o
n ess</w>
P ro
gru po</w>
av ilh
ti r</w>
gr av
esp aço</w>
com port
people .</w>
import ant
br ing</w>
apr en
Obrig ado.</w>
h our
hig h</w>
ag e,</w>
tr o
sh ar
a il
tri bu
tod ay</w>
youn g</w>
sel v
mon ey</w>
ma te</w>
in as</w>
dinh eiro</w>
ins pir
a ."</w>
proje to</w>
d eles</w>
cr u
sab er</w>
mean ,</w>
cas a</w>
poss ível</w>
energ y</w>
apr end
er s.</w>
ex c
con v
in s</w>
il i
ente mente</w>
di vers
ir d</w>
de u</w>
bo t
ç a</w>
sen s
i do</w>
difíci l</w>
com ec
bo a</w>
ne t
and ing</w>
ad as.</w>
au di
so bre
bi olog
natur al</w>
temp o,</w>
an o,</w>
happen ed</w>
comparti lh
ó g
d ay,</w>
Uni ted</w>
an o.</w>
t -
sab e,</w>
shi p</w>
s cal
ent es,</w>
bas t
Fo i</w>
qu est
al iment
re du
oun d
wh ile</w>
ativ a</w>
a to</w>
M as,</w>
pa in
ord er</w>
neg óci
e vid
up ,</w>
bo ok</w>
tinh am</w>
par e
pa z</w>
men s
g er</w>
ent re
S .</w>
sab e</w>
os a</w>
mar avilh
h und
Ch r
get s</w>
l s</w>
em ent</w>
reas on</w>
extra ordin
pesso as,</w>
bil lion</w>
a ur
pal estr
ou ,</w>
o pen
ob je
be hav
n u
j am</w>
te i</w>
t os,</w>
pr é
in o</w>
proc esso</w>
up .</w>
possi bil
in side</w>
fos se</w>
example ,</w>
ati vid
al ready</w>
ter ia</w>
imag ine</w>
et .</w>
C er
ques tion
a ument
de ve</w>
gan h
s :</w>
" O
ví de
coloc ar</w>
o x
mon str
C ar
scho ol</w>
qu anti
f ar</w>
D es
é poc
re cor
to m
ament os</w>
hear d</w>
d á</w>
b ad</w>
paí s</w>
on ce</w>
fo od</w>
ag e.</w>
environ ment
any thing</w>
an a</w>
S t
ob jec
19 9
year s.</w>
vi do</w>
soci et
di as</w>
cl us
ag ora,</w>
m ol
cl os
c idade</w>
pergun t
particul ar</w>
sur e</w>
s écul
lu z</w>
war d</w>
gr a
aqu il
í cul
ul ar</w>
cou ple</w>
lh es</w>
ent ly</w>
S h
sh or
again ,</w>
ture ,</w>
ex ac
ap pro
th is
in d</w>
es te
os ?</w>
inte lig
fav or
tiv esse</w>
some one</w>
p ap
h abil
ate ,</w>
muit a</w>
ist s</w>
ic k</w>
democr ac
P en
r oc
im press
suc c
sim ple</w>
últi mos</w>
C A:</w>
of ten</w>
gr af
pub lic</w>
dis so,</w>
b ly</w>
ant s</w>
respos ta</w>
c ento</w>
thing s.</w>
th ough</w>
cham ada</w>
un til</w>
mul ti
con ce
mud ança</w>
é r
und er</w>
tr a</w>
expl ic
ad as,</w>
Go og
sci ence</w>
ne ed
ci entist
ch ,</w>
an .</w>
ther .</w>
in ov
b el
all .</w>
pequen o</w>
vi r</w>
o portun
col lec
a ir</w>
P re
wor k.</w>
ferr ament
de po
ta king</w>
informa ção</w>
il ,</w>
dólar es</w>
ant es.</w>
w ell,</w>
t os.</w>
spac e</w>
basic ally</w>
ún ica</w>
wh er
se par
es qu
tr ac
parti cip
u al
h amos</w>
comec ei</w>
P er
trans forma
at ,</w>
behav i
S er
t on</w>
com bin
bilh ões</w>
am p
nov as</w>
de n</w>
S ab
ro om</w>
p ud
ma is.</w>
in .</w>
fre qu
se is</w>
hap p
á-l os</w>
was n't</w>
ind us
e :</w>
comple tamente</w>
ar qui
si x</w>
melh or
end o.</w>
Jo h
r am</w>
m ente.</w>
fi el
f ur
di ag
am os.</w>
qu ei</w>
gr á
coun try</w>
az es</w>
Í n
á-l o</w>
s pen
ab er
5 0
um .</w>
t end
mu ch.</w>
car a</w>
be came</w>
our c
L et
fi z</w>
Interne t</w>
temp o.</w>
peg ar</w>
d é
bast ante</w>
thin k,</w>
me as
an do
T emos</w>
S ão</w>
pesso as.</w>
l í
buil t</w>
nor m
happen s</w>
ap pe
d este</w>
cres c
heal th</w>
famil i
es ted</w>
si m</w>
man eir
ate .</w>
me an</w>
is n't</w>
a í
re s</w>
pequen a</w>
ou .</w>
dollar s</w>
ê ni
tic s</w>
iz e</w>
an al
R o
dis so</w>
tr á
in nov
de monstr
av i
l ut
W or
simpl es</w>
n on
n as
es so
ac c
res pe
no w.</w>
comple tely</w>
al low
v ê</w>
te le
pub lic
mo tiv
m es</w>
D o</w>
6 0</w>
n esta</w>
dever ia</w>
b ab
am a</w>
ag or
decid ed</w>
n uc
l and</w>
hom em</w>
A ,</w>
pre ocup
ope n</w>
i m</w>
fal ando</w>
e i
" I</w>
possi ble</w>
ev ent
tem á
per mi
di ver
íci o</w>
pi ece</w>
arti st
acion al</w>
ó ti
ou b
compu ter</w>
you r
pú bl
ab le.</w>
tur ns</w>
id o.</w>
Let 's</w>
vez ,</w>
um ,</w>
kin ds</w>
ic s</w>
ant es,</w>
L o
1 8
te d.</w>
pel os</w>
exac tly</w>
again st</w>
sof tw
m ust</w>
ar á</w>
C ol
trabalh ar</w>
ti z
raz ão</w>
enç as</w>
ad ul
proc ess
ous ly</w>
ad ,</w>
id as</w>
ho me</w>
ex press
tr az
re ad</w>
n essa</w>
g ente</w>
fic o</w>
mic ro
k il
rap id
in str
cer te
G re
- me</w>
pre par
futur e</w>
m im,</w>
fl or
no thing</w>
ca u
E U
ti s
se e,</w>
d le</w>
coun tr
torn ar</w>
inv ent
experi ência</w>
ent en
cent ur
sab em,</w>
ent end
saú de</w>
ag o</w>
qu adr
n ível</w>
is mo</w>
futur o</w>
ente d</w>
it o,</w>
baix o</w>
tica .</w>
m ist
l y
A t
pe n</w>
fron t</w>
bas e
Ch ina</w>
tr adi
exempl o</w>
B o
ve is.</w>
ter mos</w>
por t</w>
milh ares</w>
g ul
I mag
aç a</w>
trabalh ando</w>
á vel.</w>
pro tec
acontec eu</w>
G e
áre a</w>
righ t?</w>
n er</w>
wh o
e co
am e
al ém</w>
ass im.</w>
ho pe</w>
com plic
ch ing</w>
uti liz
perce b
nó s,</w>
m í
je ito</w>
i k
dis cover
Qu ero</w>
Americ an</w>
lug ares</w>
ci a</w>
ca do</w>
rel acion
lear ned</w>
ic a,</w>
ani mal</w>
f ab
O u</w>
v o</w>
d esta</w>
n inguém</w>
her e's</w>
fiz emos</w>
E ra</w>
re cur
dis tribu
d ra
1 2</w>
pr os
cois as.</w>
adic ion
sho ws</w>
ch an
ben ef
at h</w>
ajud ar</w>
a x
to tal
j our
faz emos</w>
sh are</w>
mostr a</w>
m ão</w>
an ho</w>
u ally</w>
k new</w>
es pec
cor p
br an
os s
lá .</w>
de termin
an te
sin ce</w>
própri o</w>
mil li
l ist
l he</w>
constru í
con tex
per cent
vid as</w>
ra ther</w>
iti es</w>
pen so</w>
materi al</w>
he ar</w>
ad o
remem ber</w>
hist or
difer ente</w>
des ej
ver am</w>
ma is,</w>
in ici
dis ser
pic ture</w>
m ess
cor po</w>
con fi
am oun
ma p
le d
in flu
A f
des cri
F or
ti l
te d,</w>
eng ine
cont ar</w>
com pre
answ er</w>
vide o</w>
sab em</w>
ru n</w>
per spec
oul dn't</w>
ir .</w>
descobri r</w>
beg in
mod elo</w>
ic a.</w>
experi ence</w>
est er
en s
at .</w>
wor d</w>
th ro
ser i
hor as</w>
anç as</w>
ac tiv
ac redi
vid a,</w>
me did
famil y</w>
countri es</w>
cas e</w>
j ob
g el
dif ficul
coul dn't</w>
pr ia</w>
esp aç
en er
a plic
v ul
h es</w>
tica ,</w>
he ad</w>
A .</w>
é s
cour se</w>
cheg ar</w>
v e,</w>
t é
stuf f</w>
pró pria</w>
jun to</w>
ess em</w>
de tec
cap azes</w>
M ic
tur ned</w>
rel ação</w>
idé ia</w>
atrá s,</w>
A ch
lif e,</w>
le t
V ou</w>
ver .</w>
red or</w>
pho to
fas cin
d or
orig in
H e
G r
á veis</w>
ca paz</w>
b li
vir tu
t ando</w>
m it
H I
quer em</w>
dis eas
cur r
ap ós</w>
ma temá
P ri
you 'll</w>
r un
c ity</w>
bac k
P h
D av
y 's</w>
we b
us o</w>
fig ure</w>
c idad
mús ica</w>
me mor
lo ts</w>
homen s</w>
escr it
os os</w>
n el
enti re</w>
bas ed</w>
M o
2 00</w>
v árias</w>
tiv a</w>
sur pris
rel ation
fi m</w>
c ro
hu ge</w>
g ave</w>
ear ly</w>
contr ol</w>
gro w
for mas</w>
a -se</w>
buil d
at é
vel y</w>
some body</w>
per i
busin ess</w>
b lo
au gh
anc e,</w>
Tod os</w>
prof und
mã e</w>
grou p</w>
ci ência</w>
ag u
Est amos</w>
célul as</w>
t am</w>
ch ance</w>
wor k,</w>
b ir
2 5</w>
sim il
say s,</w>
ist o.</w>
pa is</w>
a h,</w>
k s,</w>
e fici
cer .</w>
metr os</w>
in tel
dif í
d a,</w>
apr ender</w>
ári a</w>
acontec endo</w>
F r
thous ands</w>
in fec
T udo</w>
ó le
á l
ca ix
atrá s</w>
end o,</w>
começ ou</w>
cas o</w>
se ver
po bre
m inhas</w>
f on
comun ic
D o
tem per
ta kes</w>
quer emos</w>
mo ment</w>
be h
amaz ing</w>
th en,</w>
hoj e,</w>
as ?</w>
v endo</w>
DN A</w>
mat ter</w>
m ad
h ab
cre ated</w>
c y
a cor
Po demos</w>
st op</w>
s i</w>
rá p
o t</w>
el em
bas e</w>
G :</w>
á vamos</w>
prod ut
ment s</w>
at en
M eu</w>
tr ain
isso ?</w>
ic as</w>
No va</w>
tion s.</w>
tion s,</w>
sy m
self -
lo go</w>
inte gr
en gen
We 've</w>
tiv emos</w>
some times</w>
j et
ir os</w>
for c
comp an
ac i
M :</w>
Eur op
no me</w>
liv es</w>
in vol
imag em</w>
id o,</w>
est u
enc es</w>
proc ess</w>
oc i
mach in
livr o</w>
G u
in f
cer to</w>
a ul
stud y</w>
particul ar
l er</w>
de f
ag ens</w>
" A
lar ge</w>
e ."</w>
oun d.</w>
k s.</w>
ide as</w>
c lu
tant o,</w>
segun do</w>
ari am</w>
ur a</w>
o do</w>
mo le
hum anos</w>
beauti ful</w>
r ol
l ab
con st
w ed</w>
to ol
precis am</w>
gu y</w>
com peti
ar chi
Th en</w>
5 00</w>
nó s.</w>
d s.</w>
" The</w>
w er
g as</w>
S te
A t</w>
ture s</w>
sal a</w>
comp ani
it o.</w>
re mo
pos ed</w>
p sy
nuc le
he i</w>
ch em
basic amente</w>
ati s
En gl
ta x
ig o</w>
wor ks</w>
well .</w>
ta ken</w>
melh ores</w>
l ap
is m
ch ed</w>
ar e,</w>
al un
ad es</w>
proble ms</w>
et s</w>
es quer
b lu
ê n
tre in
pri v
f ís
d ay.</w>
v ista</w>
il y</w>
hap pen</w>
be b
a ke</w>
tod ay,</w>
pr ac
m am
g o.</w>
a th
seg und
m ass
gover no</w>
f lo
Á frica</w>
lev ar</w>
fr ente</w>
en vi
aj u
prin cip
muit o,</w>
commun ic
econ ô
as s</w>
P r
H ere's</w>
ric ul
es :</w>
chil dr
c â
ô n
siste mas</w>
ser vi
re p
l ingu
j u
hap s</w>
ente r</w>
cep t</w>
ac e</w>
0 .</w>
vi ver</w>
sur pre
nenh um</w>
Yor k</w>
wa y
jo ven
j o</w>
aquil o</w>
al h
C om</w>
exam ple</w>
do ?</w>
OK ,</w>
projec t</w>
inh o</w>
in fr
every body</w>
ar t</w>
Y e
Est ou</w>
ani mais</w>
man h
jor n
interess ante</w>
dis cus
í vel,</w>
ou th</w>
históri as</w>
forç a</w>
con ven
I s</w>
t es
prin ci
f íci
de l</w>
começ a</w>
B i
year ,</w>
wor ked</w>
re gr
r ul
estrutur a</w>
le ast</w>
o fer
acredi to</w>
re i</w>
gi ven</w>
f em
ass um
M e
per fec
day s</w>
Pre cis
tic e</w>
qu ick
est ado</w>
C or
t amos</w>
n ame</w>
cois a.</w>
ad ap
M on
z a,</w>
th es
sécul o</w>
precis o</w>
co p
ter ce
self .</w>
lá ,</w>
l inha</w>
cap it
ac ter
sci entist
el se</w>
defin i
L i
" O</w>
s av
ne e
know led
fo to</w>
pa i</w>
caminh o</w>
arqui te
cri min
b em.</w>
p á
m ir
con ta</w>
at ing
parti r</w>
en ho</w>
ci vil
or e</w>
mov ing</w>
al ong</w>
mo bil
depo is,</w>
th ird</w>
sa ys</w>
s mar
s cre
le ave</w>
fort un
ten ha</w>
ne w
tod ay.</w>
resear ch</w>
labor atóri
con fer
W ell</w>
v ários</w>
oun d,</w>
kno wn</w>
k ey</w>
ic es</w>
em b
self ,</w>
pl y</w>
archi tec
stor ies</w>
p assi
month s</w>
er ia</w>
8 0</w>
vis u
il li
govern ment</w>
faz er.</w>
dur ing</w>
cl in
chil d</w>
st ate</w>
g ol
ci ment
cer tain</w>
it ?</w>
ó gi
te lef
s ."</w>
próxim o</w>
pre dic
T o</w>
cor por
at os</w>
agor a.</w>
mes es</w>
intr od
equi p
individ u
comun idade</w>
comput ador
qu ant
p elas</w>
obrig ado.</w>
mul her</w>
hear t</w>
fo to
escol a</w>
econom ic</w>
deix ar</w>
As sim</w>
z a.</w>
r adi
ation s,</w>
20 1
thing s,</w>
min d</w>
ma k
i ria</w>
h a
I r
plac es</w>
pass ar</w>
par tes</w>
em erg
do min
stud ents</w>
ment ,</w>
un ch</w>
hoj e.</w>
con sequ
cer to?</w>
t est</w>
it as</w>
h ora</w>
ár v
pl es</w>
not íci
mov iment
in a,</w>
a po
we 'll</w>
s um
posi ção</w>
lev ant
leg al</w>
it h</w>
di go</w>
O r
see ing</w>
qu il
ment .</w>
b ul
ad .</w>
D i
wh ate
um ento</w>
pe ,</w>
mo del</w>
inste ad</w>
ig nor
crianç a</w>
mil it
começ amos</w>
can not</w>
ti cos</w>
simpl y</w>
m ica</w>
So me</w>
ín hamos</w>
reg ul
pe l</w>
oun ds</w>
mer c
m and
l ou
vie w</w>
ir ,</w>
hosp it
fol low
" N
sol ut
se cre
pesquis a</w>
h and</w>
er ing</w>
econom ia</w>
cl ose</w>
ab ri
super fíci
sa ying</w>
poder iam</w>
heal th
palav ra</w>
famíli a</w>
f e</w>
b ers</w>
! "</w>
h am</w>
V er
stu di
gr up
consegu e</w>
Un id
n ,</w>
mole cul
in a.</w>
fi cou</w>
commun ity</w>
cal cul
O r</w>
enti on</w>
do m</w>
Uni vers
d est
s un
r it
l o</w>
chall eng
stuf f
righ t,</w>
indus tri
fun c
aç ões.</w>
J ust</w>
D on
per to</w>
or es,</w>
happen ing</w>
b le.</w>
as soci
ament o,</w>
v ia</w>
tor s</w>
s ound</w>
poss a</w>
consegu ir</w>
s ite</w>
re cog
cell s</w>
ab le,</w>
H ar
E ver
u se
pr az
n igh
forma ,</w>
beg an</w>
ation s.</w>
aqu elas</w>
te ach
socied ade</w>
sab ia</w>
beh ind</w>
M os
o ple</w>
g o,</w>
ang e</w>
amoun t</w>
aju da</w>
a parec
Tal vez</w>
Pe ople</w>
óri a</w>
so b</w>
ir e</w>
h id
ful l</w>
extre m
ão ?</w>
pergun ta</w>
f le
espéci e</w>
dinh eir
mai ores</w>
ir á</w>
ar m
Ach o</w>
ic ally</w>
des enh
ati c
H ere</w>
19 8
sol ar</w>
próxim a</w>
o wn
w as,</w>
speci es</w>
l anç
ent s,</w>
wo men
ver y,</w>
se ven</w>
f is
incre as
g ri
every one</w>
el ,</w>
You 're</w>
po dia</w>
mus ic</w>
imag ens</w>
gu e</w>
cul p
pos su
p li
enti al</w>
anc e.</w>
y -
tr on
ter ms</w>
sci enti
power ful</w>
op portun
mor r
me i
gen e
1 8</w>
t ou
sp ent</w>
sal v
s po
ir am</w>
ag ricul
tr oc
though t,</w>
per for
id a.</w>
ful ly</w>
el h
cu ri
també m.</w>
tam anho</w>
qu í
inv és</w>
di vid
aç ões,</w>
ag o.</w>
áre as</w>
se em
que br
nenh uma</w>
medid a</w>
ent í
ab solut
L on
B :</w>
thin k
pa pel</w>
ci l</w>
U. S.</w>
A frica</w>
av anç
ma z
dis so.</w>
J ap
in depend
carr o</w>
war ds</w>
as pec
v imos</w>
realiz ed</w>
per man
nature za</w>
lu z
g est</w>
er mos</w>
empres as</w>
year -
em os,</w>
difer ente.</w>
capac idade</w>
all y.</w>
al s,</w>
ví du
spen d</w>
res t</w>
nee ded</w>
i bu
ar e.</w>
W o
z er
tri ed</w>
pe .</w>
min istr
id a,</w>
5 ,</w>
quanti dade</w>
ment al</w>
gu ys</w>
últi ma</w>
feit os</w>
cân cer</w>
cr is
b ut
Chr is</w>
y :</w>
tr an
tr ad
other .</w>
em os.</w>
difer ença</w>
ambi ente</w>
ag es</w>
" Eu</w>
sim ul
ro om
ish ed</w>
está vamos</w>
a is
total mente</w>
st op
segun da</w>
s am
poli tical</w>
cam p
comput ador</w>
righ t.</w>
cres cimento</w>
ci entí
cent enas</w>
j ud
fiz eram</w>
al tern
A o</w>
sa do</w>
per haps</w>
ol óg
lat er,</w>
di men
c entro</w>
ament o.</w>
ún ico</w>
terr or
olh a</w>
oc k</w>
mus ic
ion ,</w>
Ou r</w>
wo man</w>
wal k</w>
planet a</w>
mis s
ag ain</w>
of fic
indi vídu
hab it
des er
ativ o</w>
y et</w>
r as
pens amos</w>
im a</w>
enor me</w>
desco ber
col le
wr it
w ill
vol tar</w>
g os</w>
d eli
lear ning</w>
le vel</w>
hist ory</w>
empres a</w>
diz endo</w>
dig ital</w>
contr ibu
as t
again .</w>
sit ting</w>
g a
con te
um in
surpre end
st and
r od
fel t</w>
ag re
A c
você s.</w>
vez es,</w>
g a</w>
c ele
nor mal</w>
mer cado</w>
ide ias</w>
cer ta</w>
M a
wonder ful</w>
s le
r y</w>
p il
nov os</w>
need s</w>
jo b</w>
d a.</w>
ac her
re de</w>
conhe cimento</w>
1 1</w>
ín gu
v ent
posi tiv
out side</w>
em is
dev em</w>
ag r
ac tion</w>
wor ds</w>
p us
mo ther</w>
hour s</w>
bl ack</w>
at mos
B om,</w>
á-l a</w>
rest aur
l is
gr aç
sus tent
ph one</w>
par ts</w>
palavr as</w>
últi mo</w>
us es</w>
t ó
s l
pol ic
pe tr
my self</w>
mon e
inter ested</w>
grad u
contr ole</w>
comm on</w>
anç a.</w>
actu ally,</w>
softw are</w>
se te</w>
poder íamos</w>
p si
olh ando</w>
no i
er :</w>
vi l</w>
os o.</w>
n .</w>
ion .</w>
fac il
es cur
be .</w>
ad amente</w>
No t</w>
tru e</w>
po ten
d elas</w>
b ed</w>
O b
ti do</w>
respon si
ig u
gro w</w>
al e</w>
Goog le</w>
year .</w>
ser em</w>
pr on
popul ação</w>
pl o
mor re
ig n</w>
gu err
cultur a</w>
certe za</w>
M ay
t ínhamos</w>
gu erra</w>
en de
c ut
A d
s pre
n aquele</w>
dis pon
clar o</w>
br ought</w>
T err
ne igh
gi ves</w>
í pi
ve is,</w>
met ade</w>
is m</w>
câ mer
cer ,</w>
au th
Wh at's</w>
1 ,</w>
tor na</w>
co st</w>
can cer</w>
cam po</w>
M inha</w>
ab solu
é :</w>
ve u</w>
mã os</w>
ion s</w>
e br
chang ed</w>
ap on
an n
I D
per í
pa y</w>
mid dle</w>
l íngu
c ant
H e's</w>
mo vi
me d
man ,</w>
l es
fun do</w>
cois as,</w>
ar ão</w>
T em</w>
té c
re conhec
máqu ina</w>
mon te</w>
Ear th</w>
pequen os</w>
faz ê-l
ar te</w>
2 ,</w>
ter ri
tech nologi
sufici ente</w>
h old</w>
desenvolv imento</w>
cele br
bu y</w>
atur a</w>
vis ion</w>
fal a</w>
esso r</w>
dig it
difficul t</w>
ate ly</w>
ç os</w>
tel ling</w>
su d
re ds</w>
con cer
bre a
O n</w>
wr ong</w>
v ill
st er
natur e</w>
m im.</w>
lim it
to m</w>
thr ough
the ma
senti do</w>
gar o
co leg
w ouldn't</w>
et c
er v
er em</w>
e ight</w>
ativid ade</w>
Dav id</w>
1 00
você s,</w>
fant as
ener gi
ú str
vel mente</w>
ou s.</w>
cir c
B ro
pe ix
p ast</w>
kno w.</w>
do br
de press
ass ist
ad e.</w>
S a
de al</w>
cl ass
at or</w>
Eur ope
star ting</w>
ou s,</w>
inter ne
et a</w>
Ok ay,</w>
wr ong
senti r</w>
langu age</w>
con ver
cer tain
apro xim
vir am</w>
ther e
si ze</w>
i or</w>
gi ving</w>
g ame</w>
civil iz
c ell</w>
c anç
é .</w>
per feit
l ar</w>
fá cil</w>
dev emos</w>
w ro
us t
univer so</w>
re ,</w>
mor al</w>
li fe
in e,</w>
amig os</w>
ári o.</w>
won 't</w>
pres id
los t</w>
at or
C ali
és semos</w>
ã os</w>
sa ir</w>
n ight</w>
anim als</w>
" Well,</w>
pa per
ind ústr
con ex
M c
seem s</w>
rob ô
man ag
j am
de b
ca ,</w>
beli ev
Á fric
vis ual</w>
vi aj
system .</w>
res id
long er</w>
inte ir
ic e.</w>
happ y</w>
f our
con centr
all s</w>
Ch ar
y on
wr ite</w>
ve io</w>
tr ou
no .</w>
l as
imagin ar</w>
gu ei</w>
comp on
c as</w>
Wor ld</w>
per m
palestr a</w>
ob jet
minut os</w>
incr ível</w>
cu id
o ped</w>
mov imento</w>
com ida</w>
b e,</w>
al s.</w>
’ s</w>
vel oc
they 've</w>
res ist
realiz e</w>
pi do</w>
fundament al</w>
espec í
e u,</w>
. ,</w>
res ourc
at s</w>
ári o,</w>
v as
n av
co ver</w>
al ta</w>
ad ora</w>
R ic
verdad e.</w>
r id
os as</w>
est rel
escol h
br in
ç ões.</w>
x o</w>
v end
im pro
con serv
br ilh
Por tanto,</w>
Est á</w>
su f
plan et</w>
person al</w>
me t</w>
jo go</w>
ig r
friend s</w>
" M
te acher
recog n
quest ões</w>
program a</w>
our selves</w>
er ed</w>
des tru
F ran
trabalh o.</w>
proble m.</w>
l ad
en e
dr ug
d y
â ni
sm all
redu z
real ly,</w>
pl at
no ite</w>
ne ws</w>
mor e.</w>
man ter</w>
joven s</w>
hund reds</w>
gro wing</w>
ed uc
a ter</w>
V ej
Ess as</w>
C an
A mé
se jam</w>
pr inc
in dic
diz em</w>
comp any</w>
car bon
af fec
sh ap
our ce</w>
olh os</w>
l ,</w>
el é
educa ção</w>
bo mb
R ob
C an</w>
rece b
mun di
i an</w>
en o
cir ur
tu do,</w>
t í
t um
stor y.</w>
perce p
ist o,</w>
cham amos</w>
c idades</w>
anç a,</w>
á sti
ur b
pá g
l an
ca .</w>
c lear
c av
ab ord
Joh n</w>
toge ther,</w>
result ado</w>
phys ical</w>
n aquela</w>
pa th
lev a</w>
it or
gu ar
se cur
re fer
So me
S ta
L et</w>
séri e</w>
ma in</w>
ec er</w>
des cre
comp assi
ass un
T amb
Precis amos</w>
Ever y
ty pe</w>
toge ther.</w>
te am</w>
ques tions</w>
n ão,</w>
mem br
em br
develop ing</w>
al i</w>
ach i
acc ess</w>
qual ity</w>
pi ec
o il</w>
fa ther</w>
ex ten
devel oped</w>
conec t
av ail
T im
world 's</w>
tr op
tal ked</w>
sus tain
s li
is tem</w>
fr ac
est ,</w>
dire ção</w>
com um</w>
vol un
torn ou</w>
tir ar</w>
so m</w>
oportun idade</w>
gr ound</w>
differ ence</w>
atur e</w>
al low</w>
P od
who 's</w>
us a</w>
trans form
s angu
pr á
pl as
mud anças</w>
m ing</w>
fi quei</w>
começ aram</w>
cabeç a</w>
ass em</w>
ac esso</w>
petr óle
ma j
G er
ho me
el .</w>
are a</w>
á vel,</w>
underst anding</w>
ne y</w>
gen o
eas y</w>
cre ating</w>
ci ma</w>
begin ning</w>
víde o</w>
qu ão</w>
mo tor
ic e,</w>
T erra</w>
tic ally</w>
system s</w>
real idade</w>
or g
man u
l am
human o</w>
fre e</w>
pres ent</w>
individ ual</w>
in k</w>
fre e
f ing
ex er
at es,</w>
Pri meir
ê s,</w>
to p
pos e</w>
popul ation</w>
per d
me do</w>
ma thema
ist e</w>
F ace
whate ver</w>
univer se</w>
rá pido</w>
on line</w>
m as,</w>
go t
di minu
car e
that ?</w>
os so</w>
ex ec
ar emos</w>
appe ar
éri a</w>
w ar</w>
to mar</w>
tem por
d ang
br id
ste p</w>
pequ enas</w>
gre at
g ig
down .</w>
do enças</w>
de i</w>
J am
u z
est udo</w>
e vol
comple x</w>
car reg
absolu tely</w>
7 0</w>
succ ess
primeir os</w>
per ig
or iz
o ."</w>
educa tion</w>
M é
s '</w>
re ci
minu tes</w>
me dia</w>
incredi ble</w>
h .</w>
ep id
e th
compani es</w>
ab r
N os</w>
nucle ar</w>
milli ons</w>
l ay
fil me</w>
ent s.</w>
ent os</w>
en fr
tor no</w>
qu ê
pat tern
moment o,</w>
ist a,</w>
inv est
in tu
de tal
comport amento</w>
cientist as</w>
S outh</w>
t as
s tic
respe ito</w>
pro pó
con d
cli mate</w>
c k
époc a</w>
run ning</w>
of ,</w>
expec t
down ,</w>
difer entes.</w>
9 0</w>
t ac
sub jec
m assi
hou se</w>
consegu imos</w>
Tamb ém</w>
vis i
tr av
sy n
n o,</w>
lev ou</w>
es ar</w>
desig ned</w>
7 ,</w>
wat ch</w>
w is
psy ch
produ ce</w>
po or</w>
neigh bor
est ab
el ev
doc ument
De ix
B y</w>
us amos</w>
to -
g est
fl ic
Imag ine</w>
sho wed</w>
resol ver</w>
ref le
polí tica</w>
par ar</w>
g s</w>
feel ing</w>
de gre
ati c</w>
aten ção</w>
ar es.</w>
B as
Al g
se em</w>
sa ud
s ave</w>
gre en</w>
fe ed
br inc
aconte ce
op in
h un
ful .</w>
anc es</w>
OK .</w>
so m
recur sos</w>
p es</w>
medic al</w>
j a,</w>
V i
8 ,</w>
tar ef
sh e's</w>
reg istr
ful ,</w>
-l hes</w>
wro te</w>
tre men
s ac
pro pri
mark et</w>
l ado,</w>
entr ar</w>
chang ing</w>
ch es</w>
Qu al</w>
Ho j
D ar
t un
pro por
play ing</w>
pens a</w>
or es.</w>
incredi bly</w>
constr uc
A ID
pon tos</w>
lik ely</w>
gun s</w>
be yon
vol t
tre at
th ank</w>
pens ando</w>
non -
al canç
w ant
prof is
princ ípi
in ício</w>
do ença</w>
d í
comp anh
ac id
n ational</w>
fo tos</w>
fic am</w>
escre ver</w>
epid em
C am
B er
4 ,</w>
á-l as</w>
them selves</w>
societ y</w>
pre fer
for ce</w>
abil idade</w>
1 .
val or</w>
te ir
r ou
ner v
m ant
fri end</w>
ativ as</w>
poss am</w>
ing s,</w>
extrem amente</w>
ad e,</w>
Ex istem</w>
ç ões,</w>
re .</w>
ing ly</w>
imag e</w>
har d
escal a</w>
ef fici
chang es</w>
simil ar</w>
sh e
ferrament as</w>
co lo
br a</w>
Is ra
19 7
m oun
g ,</w>
ess enci
el es.</w>
bac k.</w>
T enho</w>
An d,</w>
vul ner
você .</w>
rec u
put ting</w>
ou vir</w>
o ito</w>
mark et
históri a.</w>
fo mos</w>
In di
A p
to tal</w>
pú bli
loo d</w>
li mi
bac k,</w>
a i
F in
" You</w>
ti es.</w>
sig n
segu in
padr ão</w>
g one</w>
ch ec
b ic
ass in
1 ,
tel ls</w>
i ções</w>
ex pan
di rig
ador .</w>
3 00</w>
s ou
pu desse</w>
c ut</w>
c il.</w>
beg in</w>
você ,</w>
tecnologi as</w>
s -
perfor man
o me
bo di
3 0
us u
segur ança</w>
perm ite</w>
m ou
fel ic
ab out,</w>
A le
opportun ity</w>
ic amente</w>
equi pe</w>
diag nos
corr up
any one</w>
K :</w>
ví r
trabalh o,</w>
t endo</w>
system ,</w>
situ ação</w>
res to</w>
par ents</w>
oc ion
maj or</w>
ing ?</w>
funcion a</w>
f low
f er</w>
ap esar</w>
D r.</w>
st and</w>
ne gr
n ão.</w>
inc enti
fe ch
ativ os</w>
v ag
traz er</w>
n ing,</w>
liter ally</w>
lid ar</w>
j an
espéci es</w>
es forç
en ough
ab out.</w>
re com
os o,</w>
mov ed</w>
id er</w>
discover ed</w>
din os
ag em.</w>
T V</w>
si ve</w>
other ,</w>
moder n</w>
especi almente</w>
especi ally</w>
" Você</w>
n arr
ma in
ev it
enc y</w>
d ele</w>
al to</w>
ag rad
ag em,</w>
ser ão</w>
me chan
in da</w>
evolu ção</w>
ant o,</w>
S im
trá s</w>
te oria</w>
sol ve</w>
se i,</w>
le av
la ter</w>
começ ando</w>
oc k
is :</w>
hav en't</w>
filh os</w>
fiel d</w>
em ocion
dr am
ch in
19 6
spe ak</w>
se ar
ra is
import ante,</w>
f li
enti ally</w>
del es.</w>
chall en
bo m
aver age</w>
A ustr
h os</w>
car acter
F ir
De pois</w>
Al guns</w>
year- old</w>
vi u</w>
ter s,</w>
s car
gen es</w>
fir st
et e</w>
comp aix
valu e</w>
v ar
us i
mes mos</w>
fig ur
f ish</w>
be comes</w>
an s,</w>
a 's</w>
J u
" What</w>
wh ite</w>
solu ção</w>
s qu
produz ir</w>
on to</w>
lim p
e feito</w>
con junto</w>
cog ni
ate d,</w>
Un idos</w>
ti es,</w>
próxim os</w>
ment os</w>
in e.</w>
en ce
ac el
A S
to wards</w>
t ol
scal e</w>
ri ed</w>
her ,</w>
el a.</w>
e di
cul os</w>
con flic
compartilh ar</w>
ci tiz
ar en't</w>
ar ?</w>
R igh
In dia</w>
C O
mesm o.</w>
informa ções</w>
import a</w>
f aç
ente mente,</w>
el e.</w>
ed ade</w>
d ão</w>
ac coun
ás s
v ê
other s</w>
mil es</w>
high -
cas a,</w>
ad ministr
ê s.</w>
vi de</w>
ple as
d es</w>
com bus
cer ebr
ab aix
selv es.</w>
i medi
foc us</w>
fab ric
ex pen
es so.</w>
e at</w>
an alis
1 4</w>
sever al</w>
sen d</w>
maneir as</w>
le y</w>
impress ion
ex ci
ar es,</w>
p un
ind o.</w>
de cad
beyon d</w>
au l</w>
a h</w>
Obrig ada.</w>
Ess es</w>
verdad eir
trans par
ti veram</w>
pas so</w>
inter ac
en s,</w>
ei ther</w>
compr ar</w>
Sta tes</w>
wh i
say ing,</w>
plan ej
grow th</w>
enfr ent
bas ic</w>
ar ei</w>
9 ,</w>
wat er.</w>
se t
scientist s</w>
públ ico</w>
pro vid
pro per
hap pin
habil idade</w>
e f</w>
e ase</w>
cois a,</w>
car b
us am</w>
ten d</w>
r ica</w>
n y</w>
fici al</w>
du z
di ri
b lood</w>
am or</w>
De us</w>
lí der
le as
ir ão</w>
b er,</w>
ê mi
t ul
t ab
paci entes</w>
melh or.</w>
jus ti
in de
grup os</w>
cus to</w>
bor n</w>
alun os</w>
al idade</w>
ad ol
a ".</w>
S im,</w>
terr a</w>
ris k</w>
proble ma.</w>
ph il
pen sei</w>
impac to</w>
gos to</w>
f ly</w>
esc ut
co oper
challen ge</w>
" Bem,</w>
é m,</w>
x ,</w>
vis to</w>
shi f
ris co</w>
produt os</w>
pap er</w>
op h
nov o,</w>
lug ar,</w>
knowled ge</w>
gen é
for d</w>
fa il
f í
es ."</w>
en ing</w>
chang e.</w>
cas a.</w>
blu e</w>
S ó</w>
O f</w>
3 ,</w>
ti tu
sup port</w>
plac e.</w>
mon t
id .</w>
fi ed</w>
cr í
cel ul
ate d.</w>
arg ument
óri o</w>
wor th</w>
u g</w>
par ad
livr os</w>
it self</w>
a id</w>
May be</w>
E very</w>
tr adicion
t as.</w>
nov amente,</w>
g on
de ci
c ed
M ais</w>
sur viv
so zinh
parec er</w>
n ão
ist ,</w>
expl ain</w>
de ta
as king</w>
are as</w>
ti co.</w>
ter n</w>
on y</w>
o od</w>
mag n
l ider
l a</w>
hosp ital</w>
ex ce
di to</w>
de ath</w>
am os
ach ar</w>
Ge or
shor t</w>
scienti fic</w>
res pir
ob s
lin e,</w>
import ante.</w>
i de</w>
G od</w>
C lar
z ,</w>
no w
mol écul
esper o</w>
P al
M I
pub l
pro mis
mor e,</w>
lon ge</w>
ador ,</w>
Ser á</w>
M es
to t
perí odo</w>
liv ed</w>
import antes</w>
ger ação</w>
el a,</w>
big gest</w>
atrá s.</w>
T ur
Af ter</w>
1 6</w>
ten ham</w>
superfíci e</w>
suc esso</w>
parec em</w>
ci ties</w>
T wit
te ach</w>
mí dia</w>
mach ine</w>
human s</w>
fin almente</w>
desco br
af et
ac ima</w>
" H
s an
pic k</w>
pas sado</w>
od s</w>
mis são</w>
hou ve</w>
fin ally</w>
W ith</w>
technolog y,</w>
so lar
sho wing</w>
s ource</w>
real .</w>
prof essor</w>
or e
mé dic
lingu agem</w>
k ill
ist a.</w>
i :</w>
gr am
ey es</w>
equi val
end ing</w>
de ep</w>
at es.</w>
Qu em</w>
um b
qu es</w>
mel y</w>
larg est</w>
l .</w>
im prov
hund red</w>
graf ia</w>
desafi o</w>
bus ca</w>
brain .</w>
boo k,</w>
bo as</w>
M un
" P
v indo</w>
també m,</w>
sk ill
result ados</w>
o my</w>
mic ros
kno ws</w>
iz ed</w>
finan ce
centr al</w>
c le</w>
b ons</w>
ar ro
T e
á veis.</w>
wee ks</w>
this ?</w>
projet os</w>
pre v
on s.</w>
li gen
investi g
gi o</w>
com er
b em
at a</w>
ar tic
F i
tal k,</w>
r o</w>
mor tal
hav a</w>
your self</w>
estr anh
ele tr
ca f
"O h,</w>
people 's</w>
ne ar
im in
f aço</w>
W ash
Es tes</w>
wat er,</w>
vi ve</w>
v ic
tri b
t on,</w>
star ts</w>
qual idade</w>
l ate</w>
hand s</w>
c ic
ani ma
am :</w>
a ud
M an
á ,</w>
ur ban
tor ,</w>
pres s</w>
p ped</w>
n ess,</w>
imag es</w>
en cont
empl o
con clus
cas e,</w>
ain ,</w>
a p</w>
a fric
a er
Co me
2 4</w>
tr uc
ti co,</w>
particular ly</w>
n e</w>
l ess
h im.</w>
ex p
cap ital</w>
ar re
aconte cer
H ol
t y,</w>
st ay</w>
s ó
relation ship</w>
n ing.</w>
n ice</w>
mov em
is ol
g ed</w>
fu ture.</w>
en s.</w>
cul ture</w>
Amer ica</w>
tic amente</w>
str ate
s pr
po ver
indústr ia</w>
h im
er ?</w>
dire itos</w>
cli má
c and
ti ve.</w>
ter s.</w>
recu per
re m</w>
p s.</w>
me et
inst al
in cri
h im,</w>
est .</w>
ac ad
me et</w>
el e,</w>
desenvol ver</w>
cr az
cau se,</w>
am ong</w>
EU A</w>
C ada</w>
we al
w in</w>
tu do.</w>
on om
nu tri
me th
iz ar</w>
ic .</w>
explic ar</w>
enor m
co t
cir cu
carr os</w>
acontec er</w>
ã ,</w>
s lid
s atis
respon s
re ver
p s,</w>
g e,</w>
descobri mos</w>
an ci
I ,</w>
Chin ese</w>
tot ally</w>
neur ôni
mé dia</w>
feit a</w>
en do
dis ease</w>
d -
car re
B ut
2 .</w>
1 .</w>
you 'd</w>
tool s</w>
sur face</w>
por que,</w>
organ is
m er</w>
liv es.</w>
it a,</w>
ing s.</w>
i es,</w>
h it</w>
estr até
continu ar</w>
ca te
befor e.</w>
an a,</w>
J á</w>
Ín dia</w>
t as,</w>
quick ly</w>
psych olog
man i
m igr
jo vem</w>
diz ,</w>
di do</w>
com pe
bac t
T o
E ven</w>
6 ,</w>
ure d</w>
tr o</w>
spe a
pou cos</w>
estud antes</w>
eno men
c e,</w>
a ?"</w>
Wh ere</w>
tiv amente</w>
progr am</w>
ind o,</w>
b le,</w>
az u
ate ly,</w>
O h,</w>
produ ção</w>
photo graph
g ing</w>
devel op</w>
d am
col abor
aut or
acel er
Wash ing
L u
HI V</w>
At é</w>
z z
wh at
w ants</w>
tr ap
pre ci
p ping</w>
inclu ding</w>
go od.</w>
fi x
el es,</w>
col labor
R es
H a
vi zinh
ta u
seman as</w>
r ar
númer os</w>
nam ed</w>
extre mely</w>
consegu em</w>
H :</w>
ul ti
sen sor
sa í
mor te</w>
for ms</w>
centur y</w>
ac o</w>
H av
G ol
ul y</w>
ic ,</w>
esp alh
en jo
d ando</w>
certain ly</w>
bot tom</w>
z .</w>
res pec
impac t</w>
im medi
ge o
fic ando</w>
eng ag
con cor
auto -
an k
al e
a per
tin y</w>
ser es</w>
par al
nov o.</w>
incri velmente</w>
ch im
bre ak</w>
bod y.</w>
Alg umas</w>
í ni
y ."</w>
u ri
speci al</w>
s low
poss ível.</w>
meas ure</w>
de dic
c enter</w>
B ill</w>
4 00</w>
ó s
águ a.</w>
w er</w>
sur g
re lev
ing l
ger almente</w>
eli z</w>
ab o
C ri
technologi es</w>
re ach</w>
padr ões</w>
n ada.</w>
inh os</w>
cle ar</w>
bod y,</w>
ad d
a ;</w>
TED ,</w>
Est as</w>
z es</w>
w id
s ;</w>
re vel
rapid amente</w>
pos to</w>
pens am</w>
mens agem</w>
lec tu
futur o.</w>
f ór
w il
tr avel
f y</w>
expl ain
et y</w>
cultur al</w>
cul o</w>
bil li
ar ily</w>
B ar
" A</w>
v az
seman a</w>
pass ado,</w>
esti ma
empre g
col or
M il
vo z</w>
st anding</w>
school ,</w>
re v
popul ar</w>
n ess.</w>
i ri
fe et</w>
est at
ear li
dever íamos</w>
bo ar
a way.</w>
Po de</w>
N ig
su s</w>
str a
s ent</w>
r ate</w>
percent .</w>
it u
g ent
es tivesse</w>
ente i</w>
el s</w>
dri ve</w>
d ú
cer tamente</w>
as :</w>
En quanto</w>
Don 't</w>
to o.</w>
struc ture</w>
respon d
gra fi
faz er,</w>
ap os
amig o</w>
a "</w>
M us
A b
4 0
wor ds,</w>
tor es</w>
se a</w>
re ly</w>
ou -se</w>
n esses</w>
ma p</w>
le vel
inc id
in fin
gi c</w>
countr y,</w>
R us
P ol
1 5
tri c</w>
tic .</w>
sab il
s ul
s ounds</w>
r am
princip al</w>
oce an</w>
mo di
g .</w>
dar k</w>
d ado</w>
big ger</w>
b unch</w>
apren diz
an teri
w ish</w>
viv em</w>
v os</w>
ty pic
s w
pe ç
il s</w>
gos t
fil ho</w>
an a.</w>
Mos t</w>
we 'd</w>
wal king</w>
ver melh
sud den
no tic
le ad</w>
invol ved</w>
fac tor
ent al</w>
combus t
c it
av a,</w>
ad d</w>
R os
Po is</w>
Chin a,</w>
ís ticas</w>
z ero</w>
win do
ve get
tr as</w>
re mark
m ur
lu cr
g e.</w>
dever iam</w>
constru ção</w>
allow ed</w>
wr iting</w>
r up
r ain
l ista</w>
id i
gal á
fo ot
etc .</w>
er a,</w>
M in
í r
v in
s it</w>
profis sion
ob ter</w>
mud ou</w>
man .</w>
en ded</w>
dat a,</w>
ass is
an o
ah .</w>
Nor th</w>
tau ght</w>
re qui
qu e.</w>
pedi r</w>
milh ão</w>
instr ument
exper im
cur so</w>
cri p
connec ted</w>
cirur gi
b ás
águ a,</w>
sor ts</w>
s ourc
r ur
k ep
finan ci
fin ding</w>
f en
elec tric
cor ação</w>
cor aj
allow s</w>
êni o</w>
wat ching</w>
sur pres
sim ple
si ons</w>
os a.</w>
m ico</w>
lin e.</w>
l ose</w>
de z
con clu
colle agu
co stu
b arr
A maz
sen si
re uni
própri os</w>
pro mo
pati ents</w>
hor r
gu ess</w>
desenvolv iment
com b
â ne
tiv e,</w>
t :</w>
sup posed</w>
so on</w>
sh a
segu ir</w>
respon sabil
prac tic
médi cos</w>
men cion
i le
g ia</w>
có digo</w>
ci vil</w>
avail able</w>
att ention</w>
and .</w>
P aul</w>
B ri
í veis.</w>
tr ag
t os
s we
idad es.</w>
com ig
Y es,</w>
work s.</w>
liter almente</w>
j um
ish ing</w>
ho od</w>
hand ,</w>
fr ag
di e</w>
des c
M al
1 7</w>
ó b
y l
plan o</w>
observ ar</w>
no body</w>
fil m
favor ite</w>
es so,</w>
design ,</w>
continu e</w>
co pi
cas o,</w>
T w
H er
Af gh
á li
visu aliz
technolog y.</w>
sub st
num bers</w>
materi ais</w>
in os</w>
er t</w>
en x
e difíci
dé cada</w>
Ye ah,</w>
K en
B os
z o
ther s</w>
phys ic
origin al</w>
land ,</w>
jun tos</w>
high er</w>
f igh
dimen sion
d augh
char ac
brain ,</w>
absolut amente</w>
D is
ure .</w>
tradi tional</w>
s into</w>
obje tivo</w>
mai l</w>
i as.</w>
hav e,</w>
expl o
estr an
cérebr o.</w>
ari amente</w>
ador es,</w>
Th ose</w>
st age</w>
son :</w>
sho wn</w>
on s,</w>
mesm o,</w>
mani pul
ma c
gre w</w>
en ch
dire ito</w>
costu ma
car ,</w>
Mic ha
J an
z on
ure s</w>
s can
regr as</w>
gener ation</w>
fa ir
dólar es.</w>
dr ug</w>
di am</w>
carb on</w>
caix a</w>
ac ess
V o
C .</w>
ó log
vol um
vid as.</w>
ul g
trans port
map a</w>
m p
i es.</w>
esti ver</w>
environ ment</w>
encontr amos</w>
boo ks</w>
b oc
tax a</w>
stuff .</w>
simpl es.</w>
sid e,</w>
produ to</w>
plac e,</w>
pens amento</w>
lug ar.</w>
in se
e fe
conce ito</w>
behavi or</w>
ant ,</w>
am ar
sur r
spac e.</w>
s í
oun ded</w>
ke ep
fe ar</w>
exempl os</w>
dre am
acor do</w>
W al
S :</w>
Ric hard</w>
J e
HI V
v ê-l
sub stitu
men ,</w>
m ó
human a</w>
evid ence</w>
con cep
aqu i
appro ach
I ra
An der
str ong</w>
possi ble.</w>
on e-
f im,</w>
av ali
any body</w>
ant ly</w>
Afric a,</w>
tim es,</w>
ter m</w>
s mo
rob ô</w>
outr os.</w>
he av
fil m</w>
elec tr
decid i</w>
cri ando</w>
comput adores</w>
co ol
car as</w>
b it
as k
apo i
ab and
E g
se melh
re fu
perceb i</w>
ox y
líder es</w>
l augh
kep t</w>
desej o</w>
N ational</w>
Engl ish</w>
x .</w>
laboratóri o</w>
j ur
funcion a.</w>
for e</w>
f eliz</w>
f ast</w>
enç a.</w>
b ele
ve jo</w>
trou x
tr uly</w>
t y.</w>
s cen
n ine</w>
intel ligen
es tiv
auto ma
al mente.</w>
s a</w>
perfec t</w>
hav er</w>
famili ar</w>
fac e.</w>
chil d
H ou
ão :</w>
á .</w>
y p
ver ão</w>
us ado</w>
t este</w>
re ach
planet a.</w>
ol ógi
moder n
i al</w>
fac ul
ele tric
el imin
cre ative</w>
condi ções</w>
b all</w>
aç os</w>
and ar</w>
W ho</w>
B u
" C
vír us</w>
transforma r</w>
pic tures</w>
ped aço</w>
men or</w>
le i</w>
de e
d or</w>
T V
On de</w>
N ão,</w>
Mes mo</w>
ver são</w>
ure ,</w>
st at
s ão,</w>
resul t</w>
raz ões</w>
própri as</w>
pot ential</w>
ph enomen
im plic
fem in
experi enc
co ber
cl ou
bo ard</w>
aprend i</w>
ad equ
y et,</w>
ve em</w>
tu b
soci ais</w>
profess ores</w>
por te</w>
off .</w>
me ant</w>
lik e.</w>
happen .</w>
ed it
diz :</w>
disser am</w>
ab sor
Interne t,</w>
D .</w>
Afric a.</w>
the ory</w>
tecnologi a,</w>
str ong
spre ad</w>
s ch
robô s</w>
p is
mas s</w>
f all</w>
ex t
emb ora</w>
con for
cl assi
aproxim adamente</w>
anti -
al ter
S econ
E inste
wo od</w>
sa f
robo t</w>
produc t</w>
o cor
intu i
e ia</w>
dro g
coloc amos</w>
cheg a</w>
bl oc
am -se</w>
aliz ed</w>
P :</w>
A u
" E
usi as
stor y,</w>
for ward</w>
design .</w>
cer to.</w>
b le
B ang
v êm</w>
trat amento</w>
ta is</w>
real ity</w>
poss amos</w>
pi or</w>
pag ar</w>
issu e</w>
fon te</w>
começ o</w>
co ol</w>
c e.</w>
americ anos</w>
Wh ich</w>
In stitu
F ro
Ex iste</w>
. ”</w>
ro t
ro om,</w>
ri que
planet .</w>
pa ix
me can
mass a</w>
l â
l un
es pos
engen he
cre ativ
conte ú
cate g
car .</w>
Amé rica</w>
ér ci
uc k</w>
suf fer
protec t</w>
outr o.</w>
loc ais</w>
jam ais</w>
intern ational</w>
ing ing</w>
ig n
históri a,</w>
ent ly,</w>
del e.</w>
countr y.</w>
audi ence</w>
ando -
adol esc
You 've</w>
L :</w>
1 3</w>
" D
thous and</w>
ser ve</w>
relation shi
paí s.</w>
on t
mov ement</w>
jour n
ester n</w>
es con
at om
T or
N o,</w>
Geor ge</w>
wher e,</w>
thre e-
ref lec
le n</w>
inter esse</w>
in ce</w>
fin al,</w>
desa parec
deix a</w>
dang er
c lo
ab str
us ually</w>
di r
di as,</w>
des tes</w>
connec t</w>
A re</w>
sli de</w>
re peti
pl ant</w>
mess age</w>
for nec
for e
end s</w>
econ omy</w>
ace it
a umento</w>
S ol
N AS
A inda</w>
ve ícul
this :</w>
posi tivo</w>
palavr as,</w>
objet os</w>
matemá tica</w>
inov ação</w>
ide a.</w>
h ous
for med</w>
ey e</w>
ef for
dat a.</w>
ci pl
ch ef
as h</w>
B us
6 0
ti ci
tem ,</w>
extraordin ary</w>
especi al
am pl
al i.</w>
TED .</w>
salv ar</w>
s es</w>
poten cial</w>
posi tion</w>
poin t,</w>
l av
h ur
evolu tion</w>
develop ment</w>
des per
cri a</w>
bet ter.</w>
O k,</w>
um ent</w>
tran si
propó sit
pro to
photo grap
pesso al</w>
pergun tas</w>
ol ho</w>
le -
in fer
i e</w>
fol low</w>
e- me</w>
e u
did .</w>
d aí</w>
b log
af ter
adap t
C E
well -
veloc idade</w>
up on</w>
to po</w>
quil ô
program as</w>
proble m,</w>
obje to</w>
norm almente</w>
mobil e</w>
mer s</w>
fr ustr
fal ta</w>
fac e,</w>
em er
difí ce
d ou
con vid
comun idades</w>
cho ose</w>
aí ,</w>
actu al</w>
Bi g</w>
é ?</w>
ser ies</w>
s ic
ques tion.</w>
l es.</w>
k y</w>
ish .</w>
deci de</w>
be aut
Interne t.</w>
Afric an</w>
tiv os</w>
son ,</w>
pro vide</w>
pan z
melhor ar</w>
gir l</w>
forma .</w>
dinheir o.</w>
col or</w>
Fran cis
Con gr
' t.</w>
sobre viv
selv es,</w>
s co
revolu ção</w>
pr atic
o h,</w>
model os</w>
k er</w>
industri al</w>
idad es,</w>
encont rei</w>
em a</w>
a z</w>
viol ência</w>
s ing</w>
regi ão</w>
mes mas</w>
inclu indo</w>
i led</w>
ho me.</w>
h ic
faz ia</w>
em pen
d y</w>
ar ri
ame aç
O ri
Cer to?</w>
wee k</w>
v it
tr aj
tip o,</w>
tal ks</w>
str ug
shap e</w>
school .</w>
re plic
re -
pos tos</w>
pen as</w>
part ícul
ous ly,</w>
ir as</w>
ganh ar</w>
fam ous</w>
f ight</w>
des tro
cri amos</w>
cl ass</w>
be coming</w>
appro ach</w>
T er
1 7
ó pi
tic s,</w>
spac e,</w>
sel ec
negóci os</w>
k ill</w>
g arr
form ig
es sed</w>
dis cipl
di os</w>
di ab
ch ave</w>
ad s</w>
Ch ic
A no
- year-old</w>
tod o.</w>
speci fic</w>
l es,</w>
ins pi
h ack
fá br
ex ig
er 's</w>
end ,</w>
diver ti
descobr i</w>
corre r</w>
b ag
ador es.</w>
W ik
Jam es</w>
& amp
trat a</w>
su ger
str i
perce ber</w>
negóci o</w>
lembr ar</w>
la w</w>
k id</w>
her .</w>
grá fi
an s.</w>
ach a</w>
W i
In gl
A fe
8 0
ra i
quer er</w>
paí s,</w>
máqu inas</w>
dad es</w>
dad e,</w>
car to
ã .</w>
ári a.</w>
ti vely</w>
sur ger
reas ons</w>
important .</w>
exec u
este ja</w>
ess entially</w>
cr ise</w>
aqu e
Char les</w>
ty pes</w>
of fer
ob es
n isso</w>
la w
in evit
coleg as</w>
co s
ch u
ass ust
af ir
aband on
a us
T i
S ,</w>
Cali for
But ,</w>
wrong .</w>
wher e.</w>
vez .</w>
tecnologi a.</w>
t able</w>
si z
s ap
ro man
red uc
real ,</w>
re pres
r ich</w>
os :</w>
n isso.</w>
for a.</w>
er á</w>
er al</w>
crianç as.</w>
col on
br as</w>
ar -se</w>
Micha el</w>
G os
ori ent
larg er</w>
inter ven
estu dos</w>
at o,</w>
abo ve</w>
Es per
C he
Ano ther</w>
3 D</w>
éri o</w>
áss ar
through out</w>
red es</w>
r ole</w>
is tic</w>
gre ater</w>
for war
estud ar</w>
em -me</w>
di mento</w>
d aquele</w>
com pro
bact éri
ar t
ac cid
abaix o</w>
Fro m</w>
An y
sel l</w>
s ões</w>
organiz ação</w>
gener al</w>
escol as</w>
d it
câmer a</w>
cri tical</w>
bo x</w>
bo m.</w>
at ors</w>
T u
I or
G P
D ur
Chin a.</w>
ári a,</w>
tremen d
tis su
spe ed</w>
solu tion</w>
ser iam</w>
recogn ize</w>
posi tive</w>
não -
no ção</w>
mis sion</w>
i a:</w>
ho me,</w>
f res
exc iting</w>
differ ent.</w>
cro w
conv enc
cir cul
Unid os,</w>
S an</w>
R i
P l
1 50</w>
ter á</w>
s ligh
quar to</w>
no t.</w>
n ad
massi ve</w>
in vis
in sec
h o,</w>
grou ps</w>
great est</w>
d ores</w>
começ am</w>
av a.</w>
ar y,</w>
ar iz
Y our</w>
W est</w>
M id
think ing,</w>
tar de</w>
si a,</w>
se e.</w>
noi te,</w>
mar ri
lin es</w>
it self.</w>
i fic
habil idades</w>
h ar</w>
finan cial</w>
dad e.</w>
crianç as,</w>
ar am.</w>
aliz ar</w>
D ,</w>
B raz
vo ice</w>
tw o-
to x
terce iro</w>
pr ene
phil os
opin i
mu se
lis ten</w>
iv ed</w>
innov ation</w>
incre ase</w>
fant ásti
en vel
cons ider</w>
conhe cido</w>
bi os</w>
at o.</w>
al ?</w>
T odo</w>
R :</w>
F re
F l
sex ual</w>
sel e
room .</w>
resourc es</w>
profess ion
olog ia</w>
for te</w>
exc it
contr o
chim panz
childr en,</w>
cam era</w>
B en
ú r
tre at</w>
toc ar</w>
sid e.</w>
se ja,</w>
rou p
re pe
prote g
milit ary</w>
man y,</w>
in iti
feliz mente,</w>
en cour
di v
dest in
co -
al ing</w>
ag ir</w>
B an
í do</w>
wh ose</w>
vi br
ut h</w>
sudden ly</w>
se gre
s pir
ris e</w>
resear ch
pare cia</w>
p ássar
oce ano</w>
no tice</w>
expl os
expec t</w>
ex tr
event ually</w>
dy nam
day s,</w>
coloc a</w>
E m
1 2
ve hic
tor .</w>
tic as.</w>
ther n</w>
pre ço</w>
pati ent</w>
on e's</w>
moment o.</w>
moment ,</w>
idé ias</w>
gan ist
fís ica</w>
fic aram</w>
en da</w>
del es,</w>
cul tiv
con duz
S ch
O cid
ver sus</w>
so l</w>
rul es</w>
priv ate</w>
p ig
or gul
ligh t.</w>
ilh a</w>
h as
got ten</w>
fu n</w>
di o,</w>
de vido</w>
d ados,</w>
b ud
ar s</w>
Mun di
L os</w>
F al
" Não</w>
writ ten</w>
secur ity</w>
read ing</w>
procur ando</w>
pergun tar</w>
low er</w>
l ha</w>
interess ante.</w>
den s
cru z
al so,</w>
acred itar</w>
a fr
I .</w>
3 5</w>
we ver,</w>
terce ira</w>
tech ni
sens ação</w>
ques tion,</w>
pri vac
oc id
man if
gen e</w>
g elo</w>
exam ples</w>
di as.</w>
cons ist
conf lit
at ten
as -
an ist
Wik i
viv endo</w>
smar t</w>
r ac
n acion
land s
jour ney</w>
h our</w>
experim ent</w>
ex tra</w>
ex cept</w>
es ;</w>
ell ing</w>
des ,</w>
cu idad
con cre
b us</w>
at err
anal y
S i
Afe ganist
" L
" B
á s</w>
y es,</w>
wa iting</w>
vez es.</w>
ver em</w>
tw o,</w>
sa ur
r ab
ol d,</w>
mu t
ing redi
human os,</w>
fer a</w>
f aça</w>
dev ice</w>
d aquela</w>
curi os
ar íamos</w>
ar ound.</w>
ap aix
J os
H is</w>
Al gu
♫ .</w>
vari ous</w>
tic s.</w>
they 'll</w>
the or
responsi bil
re ac
pré -
perspec tiva</w>
p é
la b</w>
ic amente,</w>
her o
design ers</w>
apaix on
all ing</w>
acab ou</w>
abord agem</w>
N oss
Lo ok</w>
5 .</w>
wer en't</w>
urb an</w>
un ci
te l</w>
sen so</w>
rel ativ
qu o
no ve</w>
má g
mone y,</w>
liber dade</w>
l ist</w>
jor nada</w>
ist as,</w>
is ?</w>
interne t</w>
in ver
id os.</w>
fen ô
entre prene
d oub
av es</w>
aument ar</w>
atur as</w>
astr uc
al ity</w>
Afgh anist
win d</w>
wal ked</w>
rec ently</w>
projec ts</w>
necess ário</w>
m ix
lo ved</w>
i as,</w>
fin ally,</w>
en graç
comer ci
befor e,</w>
Righ t?</w>
ári os,</w>
um ul
tur al</w>
tru e.</w>
tam ento</w>
seri ous</w>
po diam</w>
op tim
nov amente</w>
net work</w>
membr os</w>
ir r
in com
igh t,</w>
i j
human a.</w>
glob al.</w>
fí si
fic amos</w>
escol her</w>
decis ões</w>
d er,</w>
convers a</w>
A penas</w>
6 00</w>
w el
t ing,</w>
pe dr
o mas</w>
metr o</w>
le is</w>
i er</w>
hal f
h an
er e
en car
do or</w>
de z</w>
d ?</w>
ch or
auth or
OK ?</w>
ul ,</w>
torn ando</w>
ter emos</w>
ta to</w>
res um
quer iam</w>
procur ar</w>
pobre s</w>
p é</w>
ofer ec
mone y.</w>
mon itor
mag ne
língu a</w>
long a</w>
issu es</w>
for est
f f
d ela</w>
c up
acontec endo.</w>
V al
Th e
In dia,</w>
ve d.</w>
pul l</w>
obvi ously</w>
n ur
manu fac
iv a</w>
di ficul
de ad</w>
d estas</w>
d anç
curr ent</w>
ciment o.</w>
car s</w>
íci os</w>
way s,</w>
verdad eiro</w>
v esti
tu bar
t ou</w>
some where</w>
soci e
simpl es,</w>
petróle o</w>
pas sei</w>
particul ar,</w>
melh or,</w>
inter est</w>
g es</w>
es a</w>
di ed</w>
del a.</w>
d ados.</w>
cost um
cam pa
c il,</w>
as ter
amb os</w>
S en
époc a,</w>
with .</w>
sin al</w>
sem pre
s at</w>
p it
o tim
necess idade</w>
kil led</w>
jog ar</w>
infr astruc
in es</w>
h ing</w>
fo ot</w>
cor rec
co de</w>
cl a
cham o</w>
cham a</w>
car dí
bel o
ass im
as i
a companh
Sab e,</w>
M ed
tr uth</w>
pro pos
press ão</w>
piec es</w>
ob st
ne ar</w>
n ia</w>
inter pret
gene tic</w>
esquer da</w>
el se.</w>
cons igo</w>
ar di
ar am,</w>
C i
was te</w>
tur a.</w>
tant as</w>
paci ente</w>
outr os,</w>
manh ã</w>
intern acion
incr ível.</w>
im pul
h us
gir ls</w>
fav or</w>
effec t</w>
dri ving</w>
don e.</w>
deb ate</w>
cérebr o,</w>
conv inc
conex ão</w>
com fort
S eu</w>
Rob ert</w>
M or
Ju li
Europ a</w>
A l</w>
% .</w>
tri al</w>
stud ent</w>
servi ço</w>
r us
permi ti
pe ça</w>
pa is
lembr o</w>
l ack</w>
human o.</w>
hel ped</w>
go od,</w>
famíli as</w>
environment al</w>
el ho</w>
U S
N i
K e
Ch ris
4 5</w>
ób vi
y n
y m
will ing</w>
virtu al</w>
viol ence</w>
tic ,</w>
res s</w>
rec ent</w>
ra ise</w>
pl an</w>
pen sei,</w>
os amente</w>
mos qu
j ulg
it a.</w>
in come</w>
experi ências</w>
estab elec
en a</w>
dollar s.</w>
des empen
countri es,</w>
c em</w>
W at
" I'm</w>
á-l o.</w>
ver sion</w>
sle ep
os ."</w>
informa tion,</w>
indus try</w>
indivídu os</w>
hon est
co f
bol a</w>
al though</w>
M at
Fir st</w>
Br it
" Por</w>
tou ch</w>
th s</w>
studi es</w>
sol di
s cr
ro w</w>
ro m
mat éria</w>
jog os</w>
ing :</w>
hor iz
fos sem</w>
childr en.</w>
ar ound,</w>
and -
ac y</w>
V ir
H u
volun t
vid os</w>
tem .</w>
tel a</w>
performan ce</w>
mean ing</w>
m im
ligh t,</w>
esper ança</w>
err ado</w>
ent anto,</w>
e feitos</w>
chang e,</w>
ach am</w>
W estern</w>
Th ink</w>
M ul
ás tico</w>
women ,</w>
vis it
str ang
sligh tly</w>
r an</w>
qu in
problem s.</w>
o corre
no t,</w>
fur ther</w>
fu ture,</w>
es co
en coraj
ca ç
boo k.</w>
aw are</w>
aliz ação</w>
Unid os.</w>
Terr a.</w>
L a
G al
é tica</w>
tr ain</w>
ti me
tan e
spe ak
some how</w>
righ ts</w>
rep ente</w>
parad ig
par ce
n íveis</w>
mostr ando</w>
mor ning</w>
materi als</w>
ir o,</w>
har ia</w>
h o.</w>
for a,</w>
fin almente,</w>
ex i
ent er
eir os</w>
dinheir o,</w>
din â
compu ters</w>
co zinh
cas os</w>
bre ak
ati tu
an da</w>
am ?</w>
Univers idade</w>
Su a</w>
In ste
wn ,</w>
t ap
sug gest
solu ções</w>
si to</w>
pic o</w>
pat tern</w>
num ber
mo tivo</w>
grá fico</w>
felic idade</w>
feit as</w>
difer entes,</w>
di o.</w>
ca l</w>
at enç
ab el
S ou</w>
ut e</w>
teach ing</w>
situ ation</w>
sen se,</w>
resol u
reduz ir</w>
nigh t,</w>
muit o.</w>
lead ers</w>
l inhas</w>
ist .</w>
im ple
gam es</w>
fo od.</w>
esti mul
esti lo</w>
esper ar</w>
cond uc
con fort
cl ic
a way,</w>
Mu itos</w>
M any</w>
L in
we b</w>
teacher s</w>
s ente</w>
pres erv
precis ava</w>
médic o</w>
l en
individu als</w>
gal ax
dé c
dra w</w>
difer ente,</w>
célul a</w>
com ent
bab y</w>
ant .</w>
ag ing</w>
Par ece</w>
á veis,</w>
Áfric a,</w>
ver b
tr ust</w>
stre et</w>
some thing.</w>
sin ais</w>
se x</w>
ren da</w>
po vo</w>
ol d.</w>
in fl
fal amos</w>
fac es</w>
es se
ente m</w>
democrac ia</w>
cri ação</w>
ac as
S tre
P resid
N inguém</w>
ânci a,</w>
sup er</w>
off ,</w>
model s</w>
m os,</w>
it ."</w>
galá x
flor esta</w>
com pl
biolog ical</w>
ay ?</w>
ari a,</w>
an ál
ador as</w>
ad di
abri r</w>
Univers ity</w>
J un
Ear th.</w>
ânci a.</w>
vid ade</w>
v ant
robo ts</w>
quê ?</w>
qu ê</w>
pos .</w>
pol íci
pol ice</w>
oc h
n essas</w>
k et</w>
iti es.</w>
ide a,</w>
histor y.</w>
graph ic</w>
f ound
ex pon
est ú
d err
Ne w
Americ ans</w>
2 .
tec n
success ful</w>
s "</w>
peri od</w>
ic s,</w>
her ó
fl ying</w>
exper imento</w>
ev itar</w>
drug s</w>
control ar</w>
be u</w>
bac teri
ature s</w>
Th omas</w>
H um
Algu ém</w>
to wn</w>
s n
rel ated</w>
r oub
problem as.</w>
os a,</w>
mo ver</w>
m -
liv re</w>
la un
k e.</w>
fortun ately,</w>
f ós
exam in
er y</w>
c idade,</w>
bem -
be cause,</w>
base ado</w>
Primeir o,</w>
P I
No v
9 0
5 %</w>
3 .</w>
sur ve
pud éssemos</w>
pri or
pas sou</w>
mer gul
le ase</w>
follow ing</w>
ferrament a</w>
eco log
comm it
com mon
S em</w>
Face book</w>
C ap
A m
7 0
ór g
ári os.</w>
viv o</w>
v ig
trat ar</w>
tic as,</w>
t ing.</w>
respon der</w>
pr ice</w>
ph ere</w>
p ô
ox ig
olog y</w>
l ent
k et
econô mi
difí cil.</w>
comple te</w>
com mer
com igo</w>
an as</w>
Qu ant
Joh n
E d
E ast</w>
tol er
s wit
pros per
p tion</w>
n isso,</w>
mu da</w>
mem óri
gl am
ent usias
di plo
consci ência</w>
cons ul
cl ín
centur y,</w>
cap tur
brain s</w>
av o
anc ed</w>
O N
L ev
G ran
4 .</w>
with ,</w>
way s.</w>
though ,</w>
son g</w>
sho t</w>
resul ts</w>
respon se</w>
re t
poin ts</w>
objec ts</w>
jo in
introd uc
id e,</w>
exis ti
exempl o.</w>
cr os
ar -lhes</w>
ach amos</w>
ô nic
ís tica</w>
wa it</w>
ti ver</w>
sobre vi
possi bly</w>
play ed</w>
person ,</w>
or s,</w>
objec t</w>
mostr am</w>
moment os</w>
fo od,</w>
el se
dire tamente</w>
consci ous
cam er
c ír
ar ing</w>
ar ch
anc estr
ab und
N este</w>
ve d,</w>
so r</w>
si a.</w>
shar ed</w>
servi ços</w>
sa fe</w>
re un
pré dio</w>
proble ma,</w>
o k,</w>
mod o,</w>
intelig ência</w>
g ê
futur o,</w>
fr ente.</w>
forç as</w>
for est</w>
estrutur as</w>
ensin ar</w>
encontr a</w>
el et
dro gas</w>
dis cu
dic ion
có pi
corp o.</w>
conf id
con os
commun ities</w>
auti s
at ory</w>
adv ant
ver s</w>
s ão.</w>
ro g
re ve
prote ger</w>
princip almente</w>
plant as</w>
im en
hav e.</w>
e ;</w>
del e,</w>
cheg ou</w>
cas as</w>
b ub
air .</w>
St ates,</w>
L if
H ig
val ores</w>
tur ning</w>
the tic</w>
pou qu
on es.</w>
mon tan
inv ented</w>
inspi red</w>
hel d</w>
feit o.</w>
exci ted</w>
esqu ec
es paci
do m
design er</w>
com er</w>
bilh ão</w>
R u
Mu itas</w>
, 00
ás semos</w>
téc nic
them selves.</w>
pou cas</w>
ol der</w>
notíci as</w>
k e,</w>
defin e</w>
countri es.</w>
corp o,</w>
car t
cap e</w>
br inging</w>
b ought</w>
b ord
ap plic
Tod as</w>
Hoj e</w>
De us,</w>
At l
" How</w>
óti mo</w>
tur a,</w>
tion ary</w>
te x</w>
te or
t á
sk in</w>
r ange</w>
per ten
particular mente</w>
ori th
mic r
ist s,</w>
ire mos</w>
hel ping</w>
dre am</w>
c idade.</w>
aí .</w>
ari a.</w>
al i,</w>
activ ity</w>
P esso
M e</w>
tele vis
soci al.</w>
sa tel
ic ul
g es
eir a.</w>
baix a</w>
am o</w>
ac tive</w>
a war
a ",</w>
Gu erra</w>
ve j
us ão</w>
th ir
te ma</w>
t estes</w>
sear ch</w>
ro ad</w>
ras tre
primeir as</w>
po de
má xim
my self,</w>
land .</w>
institu ições</w>
impro vis
important ,</w>
gar anti
flor est
el low</w>
el as.</w>
effec tive</w>
d id,</w>
d entr
compaix ão</w>
alg orith
" We</w>
é m.</w>
val e</w>
speci fic
small er</w>
re port
pil o
of .</w>
near ly</w>
infr a
example .</w>
con tato</w>
con tain
com pos
clear ly</w>
cidad ãos</w>
E as
Áfric a.</w>
vi eram</w>
they 'd</w>
tent amos</w>
t on.</w>
sub -
redu ce</w>
pre ven
moviment os</w>
list ening</w>
i Ph
human os.</w>
go od
gir l
fas ter</w>
dol lar</w>
de ep
contex to</w>
att ac
air plan
a !</w>
S cot
D ig
8 .</w>
Ín dia,</w>
vel ho</w>
underst ood</w>
s and
pu zz
proc ess.</w>
pres ente</w>
plat a
plant s</w>
on es,</w>
mem ória</w>
lu ck
k ing,</w>
iti es,</w>
informa tion.</w>
gol f
fe ed</w>
escre veu</w>
enorm ous</w>
bo y</w>
ar y.</w>
ambi ent
Ok ay.</w>
19 5
w all</w>
visi ble</w>
tr af
st ay
si tes</w>
re leas
r ess
mulher es,</w>
men in
ho pe
high ly</w>
head .</w>
for mul
fenô men
f low</w>
elec tron
cr af
build ings</w>
bod y's</w>
amp li
aconte cer.</w>
telef one</w>
soci al,</w>
s ia</w>
psi co
plas tic</w>
od y</w>
min ds</w>
min d.</w>
lit e</w>
it ch
in s.</w>
ic ally,</w>
happen ed.</w>
est óri
esper ando</w>
ensin o</w>
co r</w>
char acter
capit alis
ativ a.</w>
arti ficial</w>
ach o,</w>
S tan
A conte
' s,</w>
y ed</w>
wor st</w>
trav el</w>
ti n</w>
ter ap
teach er</w>
s low</w>
organiz ações</w>
oc cur
hav iam</w>
go al</w>
escol ha</w>
cre ates</w>
carr y</w>
baix o.</w>
an si
al eg
ag ed</w>
ac er
S ar
H om
D an</w>
Ander son:</w>
suc ed
sex u
pes o</w>
mos tly</w>
mo tor</w>
leg al.</w>
lead er
kid s,</w>
health y</w>
gover nos</w>
f it</w>
engine ering</w>
e u.</w>
do ing.</w>
divers idade</w>
dis positivo</w>
cost s</w>
com o,</w>
cle an</w>
caus es</w>
carbon o</w>
b y
ati z
at ac
S he's</w>
N esta</w>
J er
Hav ia</w>
D em
5 ,000</w>
v a
to ol</w>
sol o</w>
se tor</w>
proc ess,</w>
pro pag
poten ci
port a</w>
offic e</w>
m it</w>
id os,</w>
id es</w>
ic es,</w>
h a,</w>
fir e</w>
dig n
cre di
constru indo</w>
cand id
apren demos</w>
alg or
S teve</w>
I t
árv ores</w>
vill age</w>
taref a</w>
some thing,</w>
sh ares</w>
s até
quis er</w>
mundi al</w>
low -
ism o.</w>
corr endo</w>
consum id
ativ o.</w>
alcanç ar</w>
a ther</w>
W illi
1 ,000</w>
í vel
êmi o</w>
y s,</w>
ver de</w>
to ma
tis h</w>
temper atura</w>
serv ice</w>
ri c</w>
recor d</w>
r ough
produc ts</w>
iz ação</w>
escol a,</w>
environment ,</w>
di ante.</w>
complic ated</w>
an ks</w>
S al
N unca</w>
Li ke</w>
G lob
CO 2</w>
20 ,</w>
1 6
" F
te en
su l</w>
st a
squ are</w>
possu em</w>
pol u
per der</w>
peg a</w>
pass a</w>
mes es,</w>
m os.</w>
long -
im it
h ad
frequ entemente</w>
feliz es</w>
especi al</w>
enough ,</w>
craz y</w>
compre en
co di
ciment o,</w>
cho ice</w>
cav al
atóri o</w>
T ,</w>
N at
ân gul
ter ed</w>
tant os</w>
str eng
st atis
remark able</w>
possibil idade</w>
port uni
nav eg
me x
ism o,</w>
hus b
feel s</w>
energi a,</w>
comunic ação</w>
azu l</w>
ar d
apro ve
ad ver
achi ev
T ake</w>
" W
train ing</w>
tr ilh
tor ne
t ons</w>
stud ying</w>
str ange</w>
rad ic
per s
pa id</w>
ist as.</w>
ir mos</w>
inst ance,</w>
ind ustr
human it
ho t</w>
expen sive</w>
ent reg
energi a.</w>
emo tional</w>
dro p</w>
doc tors</w>
direc tly</w>
de mais</w>
de cl
cl asse</w>
cel er
bo m,</w>
arr y</w>
C as
vi agem</w>
u r</w>
tod os.</w>
ta :</w>
re tir
pow er.</w>
p ion
os sos</w>
op portuni
neg oci
mic as</w>
jo in</w>
eng age</w>
em pol
eir as</w>
di mens
de a
cri me</w>
cof fe
bac teria</w>
as pir
Tw o</w>
Re ino</w>
Br as
Americ a,</w>
- up</w>
á-l a.</w>
uni que</w>
ru im</w>
ru as</w>
pre vi
pr est
p ite</w>
o ".</w>
em ?</w>
do -
diseas e.</w>
dire ita</w>
de par
d ul
cr oss
con ser
br illi
assun to</w>
V ol
Ou tra</w>
í bri
w ise</w>
ve ter
trans mi
tiv o.</w>
terri ble</w>
sh oul
see med</w>
poin t.</w>
pattern s</w>
movi e</w>
min d,</w>
m ín
lem bre
igh t.</w>
id e.</w>
ic h,</w>
h ed</w>
e ma
di ria</w>
de grad
d aqui</w>
cri ou</w>
conven i
c alls</w>
arquite tura</w>
a que</w>
é re
á-l os.</w>
tal vez,</w>
strate g
pus h</w>
m ês</w>
ligh ts</w>
introd u
il umin
ic s.</w>
i o,</w>
g in
educa tion,</w>
dis cover</w>
con cept</w>
cion ar</w>
cham ar</w>
ch ap
bele za</w>
S cho
Qu er
A R
thro w</w>
res erv
pan ha</w>
n er,</w>
medi r</w>
leg is
inter face</w>
inf anti
impro ve</w>
gos tam</w>
evol ved</w>
err ado.</w>
e fic
e ?"</w>
con fron
col lap
c ál
R ep
Hoj e,</w>
Cali fór
C entr
what ?</w>
tr ack</w>
tiv as</w>
ther ap
sh el
represent a</w>
pro test
organiz ation</w>
nor te</w>
ne u
minut e</w>
kil ome
ins ul
inh a.</w>
happin ess</w>
fun ção</w>
fic ação</w>
fal ei</w>
ex cep
ef ul
dev o</w>
ban de
baix o,</w>
as sem
al ha</w>
a co
M anh
AID S</w>
tremend ous</w>
strug g
sci ence,</w>
s ess
realiz ar</w>
pratic amente</w>
pol ici
mon th</w>
met ap
memor y</w>
mag az
li e</w>
le it
jorn al
for .</w>
fo i,</w>
first ,</w>
expec ted</w>
do z
dinos saur
difer enças</w>
compassi on</w>
at ing.</w>
any where</w>
am s</w>
T ex
So mos</w>
Qu anto</w>
Mid dle</w>
Ac tu
19 4
ó tim
ís sim
work ers</w>
ver gon
tar de,</w>
sustain able</w>
si on,</w>
nov amente.</w>
my ster
ing ly,</w>
in clus
id as.</w>
explor e</w>
experi ence.</w>
espaç o.</w>
en se</w>
dist ância</w>
des .</w>
de mo
corp os</w>
convers ation</w>
consum o</w>
con stitu
co bri
co br
aul a</w>
arti go</w>
am i</w>
Indi an</w>
Aconte ce</w>
" G
vê em</w>
use ful</w>
univers al</w>
stic k</w>
qu ed
po e
pen a</w>
pas s</w>
min e</w>
ma jor
job s</w>
ic as,</w>
ente ?</w>
educa tion.</w>
e ja</w>
de clar
de -
ar gu
agre e</w>
Sab emos</w>
Imag in
D u
' ,</w>
ter ão</w>
t ado</w>
stand ard</w>
son s</w>
s pi
res ili
rec entemente</w>
progr ess
produc tion</w>
por ted</w>
pl ay.</w>
ing ."</w>
es es</w>
entr a</w>
ent a</w>
en gan
democrac y</w>
del as.</w>
d :</w>
crianç a,</w>
confi ança</w>
condi tions</w>
cheg amos</w>
br ings</w>
aç ão
anci ent</w>
ac hei</w>
ac cur
Wiki pe
W :</w>
O x
Is l
Gre at</w>
C ,</w>
wi de</w>
vol ta.</w>
vac cin
troux e</w>
tim es.</w>
ti liz
socied ades</w>
sim .</w>
si te.</w>
si on.</w>
reconhec er</w>
pa ir</w>
mes a</w>
k ey
hor ri
gr ound.</w>
ger al</w>
flu xo</w>
f ed
escol a.</w>
do enç
decis ions</w>
c ity,</w>
Mic ros
B ur
Au di
10 ,000</w>
ç ul
çul man
ver mos</w>
ve ja</w>
rece ber</w>
produc ed</w>
p ar</w>
ord em</w>
moun tain
lead ing</w>
inter ior</w>
inh a,</w>
ex tin
energ y,</w>
diz er:</w>
conteú do</w>
bodi es</w>
ar maz
air ,</w>
achi eve</w>
Ken y
we ight</w>
verdad eira</w>
succ ess</w>
sor te</w>
skill s</w>
shar ing</w>
scre en</w>
school s</w>
ráp ido.</w>
respos tas</w>
propósit o,</w>
pre g
partícul as</w>
p age</w>
ob ser
mens agens</w>
ma tic</w>
ir a,</w>
inv en
in vi
human idade</w>
histor y,</w>
gent le
fr an
form ing</w>
foc used</w>
e ur
de ca
consegu i</w>
bic ic
beaut y</w>
b its</w>
apresent ação</w>
Por tanto</w>
M is
B on
&amp ;
t ."</w>
so fre
sex o</w>
rur al</w>
reas on
pág ina</w>
pe ace</w>
notic ed</w>
ni a,</w>
n ers</w>
n acional</w>
is tica
ill us
explor ar</w>
em bar
elé tr
disser am,</w>
detal h
decis ão</w>
concor d
chem ical</w>
brid ge</w>
and a,</w>
acad em
M ac
F ren
A n</w>
2 1</w>
- to-
í veis,</w>
í mos</w>
vid as,</w>
torn am</w>
te ch</w>
tant a</w>
t ag
societ y.</w>
sle ep</w>
sig n</w>
sen hor
rais ed</w>
quant os</w>
oun c
os os.</w>
neurôni os</w>
moment .</w>
ma th</w>
liv es,</w>
k m</w>
influ enci
human o,</w>
h am
govern ments</w>
glob al,</w>
fav or,</w>
fair ly</w>
equ il
empre ende
diseas e,</w>
d eram</w>
cur v
costuma va</w>
as se
ar m</w>
ap preci
ac celer
ab ol
We b
Qu er</w>
v enc
temp os</w>
ri o</w>
quí mi
prote í
prin t</w>
polí ticas</w>
m o,</w>
langu age.</w>
la ws</w>
iz ing</w>
import ância</w>
fr as
fazê-l o</w>
colle ge</w>
belo w</w>
ap pli
T it
EU A,</w>
C :</w>
Americ a.</w>
sci ence.</w>
real mente,</w>
r on
pu x
pr ou
passi on
over ,</w>
mus ical</w>
m o.</w>
lut a</w>
k ing.</w>
immedi ately</w>
him self</w>
gi ant</w>
fem ale</w>
ever .</w>
esp ir
eng aj
di r</w>
de mor
cérebr os</w>
co re</w>
ap ply</w>
acontec e.</w>
2 1
" Why</w>
y ;</w>
tend ência</w>
st ,</w>
spen ding</w>
responsabil idade</w>
r end
princi pais</w>
pre vis
pre ced
pass ado.</w>
pas sed</w>
or s.</w>
mic rob
met al</w>
me ter</w>
kno wing</w>
ir a.</w>
ic es.</w>
i os</w>
gi f
fron teir
flu tu
famil ies</w>
exce to</w>
espaç os</w>
espaç o,</w>
enx erg
descri be</w>
des t</w>
as ."</w>
ari an</w>
Pesso as</w>
M ad
Cer to,</w>
web site</w>
um ents</w>
ual dade</w>
termin ar</w>
stuff ,</w>
signific ant</w>
secre t</w>
rad ical</w>
propri ed
open -
nas c
mu ch,</w>
minut os,</w>
met á
machin es</w>
li br
le gi
le d,</w>
l ying</w>
environment .</w>
engen haria</w>
el as,</w>
e ating</w>
dr ag
di ante</w>
consegu iu</w>
cell s,</w>
c ity.</w>
bet ter,</w>
ba ter</w>
You Tu
Tim es</w>
S atur
w ri
tre es</w>
trabalh am</w>
stra ight</w>
stop ped</w>
saú de,</w>
sac ri
ord en
o ts</w>
level s</w>
j ant
g lo
foto grafi
end .</w>
eco s
con sel
bro ad
br aço</w>
apresent ar</w>
anc y</w>
an j
al o
Twit ter</w>
Terr a,</w>
S oci
Micros of
" ]</w>
ôn ia</w>
wi fe</w>
treat ment</w>
tiv a.</w>
there fore</w>
tech n
sí m
signific ado</w>
sa ib
re qu
re médi
pesso a.</w>
pesso a,</w>
obvi ous</w>
no tion</w>
mar ca</w>
interess ante,</w>
fr ente,</w>
f aria</w>
et h</w>
equil íbri
conhec er</w>
challeng es</w>
artist a</w>
an e</w>
add ress</w>
S ci
R ec
NAS A</w>
M and
An dre
Al ém</w>
A h,</w>
' .</w>
stor e</w>
spea king</w>
rel ações</w>
re vista</w>
pro voc
peç as</w>
permi tir</w>
part ment</w>
ou vido</w>
ma pe
hel ps</w>
exer cis
e mail</w>
dis positiv
descober ta</w>
des pite</w>
cé u</w>
cer ti
at ing,</w>
ar mas</w>
al one</w>
O ver</w>
F u
Ear th,</w>
" Como</w>
ú ni
é is</w>
ânci as</w>
uc k
u se,</w>
sím bol
sav ing</w>
per nas</w>
p ele</w>
ou vimos</w>
or r
mi c</w>
mar .</w>
man da</w>
li ção</w>
ire m</w>
im possible</w>
hand .</w>
for ,</w>
fantas tic</w>
el eg
dev ast
clos er</w>
cer to,</w>
br o</w>
atrav ess
ad mir
M i
á b
viv emos</w>
ulti ma
ter em</w>
surpris ing</w>
saú de.</w>
quilô metros</w>
n oc
mud ando</w>
merc ados</w>
intel lig
imedi atamente</w>
g ás</w>
fil mes</w>
fig ured</w>
estrel as</w>
es se,</w>
es quis
en fer
elem entos</w>
dis as
descobri u</w>
desafi os</w>
deix ou</w>
conec tar</w>
cl as
cho col
ati vely</w>
at temp
at aqu
an thro
acontece u.</w>
] .</w>
L ad
’ t</w>
ví ti
ve jam</w>
tur b
trabalh a</w>
put s</w>
pud essem</w>
prim i
po br
percent ,</w>
pa in</w>
obvi amente</w>
mé dio</w>
mos tre
is m,</w>
inte iro</w>
im pr
ide as.</w>
for m.</w>
ex tern
esti ve</w>
continu a</w>
ben efici
atu almente</w>
ament os,</w>
acab ar</w>
abel has</w>
a pl
I m
C al
A cre
1 0,</w>
ólog os</w>
suc ce
sh ouldn't</w>
senti mento</w>
sangu e</w>
pas se
on line,</w>
olh amos</w>
n one</w>
mic a,</w>
l ado.</w>
individ ual
head ,</w>
event u
er i
entreprene ur
en n
cor ding</w>
compar ed</w>
com e
co res</w>
cas es</w>
br ut
bo x
apro pri
acredit am</w>
St ates.</w>
On ce</w>
J on
In dia.</w>
Gre en
Europe an</w>
B ud
7 5</w>
í fer
téc n
trans fer
tra z</w>
ta -
surpreend ente</w>
su n</w>
solu tions</w>
si te,</w>
pur pos
pol iti
planet ,</w>
ph ones</w>
neighbor ho
manif est
lectu al</w>
lead s</w>
iv emos</w>
inter act</w>
fr anc
fal ou</w>
ex cel
ence :</w>
de d.</w>
commun ity,</w>
b es
af ford</w>
Ye ah.</w>
Wh y?</w>
S em
D ec
Ch il
; .</w>
to o,</w>
teri am</w>
so ld</w>
rep ente,</w>
qu ick</w>
publ ished</w>
profund amente</w>
polí ticos</w>
person .</w>
per da</w>
pen se</w>
month s,</w>
minut es,</w>
min is
mem ber</w>
legis l
id s</w>
famil y,</w>
experiment os</w>
evid ência</w>
escol has</w>
decis ion
c ach
b y,</w>
architec ture</w>
W il
Come ç
B al
í ri
ç a.</w>
tr e</w>
tam ente,</w>
sent i</w>
revolu tion</w>
res er
polic y</w>
pesquis as</w>
os os,</w>
o h</w>
notíci a</w>
ma gic</w>
ma ca
ir mã
informa ção,</w>
friend s,</w>
free dom</w>
fil led</w>
exer c
escrit óri
er am.</w>
envi ar</w>
enti rely</w>
en ab
empre go</w>
cont ent</w>
citiz ens</w>
carre ira</w>
capac ity</w>
Yor k,</w>
J ef
Ho wever,</w>
wn .</w>
typic al</w>
tre e</w>
simpl ic
pri vi
pow er,</w>
organis mos</w>
ocor re</w>
necess arily</w>
informa ção.</w>
he at</w>
gre at.</w>
fr ut
fle xi
ext inc
dimension al</w>
dez enas</w>
bo l</w>
an -
Mus li
K ar
Is lam
EU A.</w>
Ag ain,</w>
7 .</w>
À s</w>
you ?</w>
v ast</w>
tiv essem</w>
stat us</w>
projet ar</w>
nature za.</w>
me ia</w>
li es</w>
jour ne
job .</w>
is m.</w>
im possível</w>
hol ding</w>
for get</w>
fenômen o</w>
every thing.</w>
energ y.</w>
computador .</w>
cer tas</w>
ad op
F :</w>
Einste in</w>
E is</w>
Bri tish</w>
Ín dia.</w>
y s.</w>
we ap
w on</w>
vir us</w>
us ada</w>
trans l
trans form</w>
tod o,</w>
th y</w>
s culp
reg ular</w>
program s</w>
presid ente</w>
peix es</w>
other s.</w>
ol a</w>
n ada,</w>
music ,</w>
iri am</w>
intelligen ce</w>
forma r</w>
ed ?</w>
diz em,</w>
divers ity</w>
des lig
decid imos</w>
co very</w>
be l</w>
at trac
an z
abil ity.</w>
Tod ay,</w>
Pe ter</w>
He y,</w>
G od,</w>
DN A.</w>
DN A,</w>
v ont
v an</w>
tul o</w>
te cido</w>
son ho</w>
pó s-
pur su
projec t.</w>
on -
mist ur
mer ,</w>
ment s,</w>
manufac tur
m ão.</w>
livr o,</w>
hear ing</w>
fi x</w>
en ever</w>
dólar es,</w>
don e,</w>
compan hi
bur aco</w>
beb ês</w>
basic amente,</w>
al ong
afr aid</w>
Tod a</w>
C re
vo ar</w>
vic tim
univer se.</w>
tw ice</w>
trad uz
tiv a,</w>
tex to</w>
s tem</w>
per su
pens ar,</w>
pass ando</w>
oportun idades</w>
neur ons</w>
nature .</w>
mo ther
men tion
lo ad</w>
l i</w>
l ay</w>
jun tos,</w>
inter vie
funcion ar</w>
fu el</w>
ex hi
esforç o</w>
entre v
ec h</w>
dr in
dis tr
d ica</w>
cus tos</w>
cri ado</w>
conhec emos</w>
colleagu es</w>
chil d,</w>
cabeç a.</w>
bir th</w>
ban co</w>
at aque</w>
Secon d</w>
Ori ente</w>
A í</w>
9 .</w>
us ual</w>
th i
ru a</w>
re put
maravilh oso</w>
ger ar</w>
ev ento</w>
essenci almente</w>
enor mes</w>
electric ity</w>
difíce is</w>
decis ion</w>
cri aturas</w>
conhec em</w>
bil idade</w>
bi ológ
b á
ativ a,</w>
Th re
S eg
Noss a</w>
G en
tum or</w>
real idade,</w>
pro fun
politi ci
ou viram</w>
molecul ar</w>
mesm os.</w>
li qu
jun tar</w>
it os,</w>
i P
gu i
es ia</w>
en o</w>
en ess</w>
em p
day s.</w>
cover ed</w>
connec tion</w>
con tam
computador ,</w>
commun ity.</w>
collec tive</w>
cl es</w>
can cer.</w>
c il
ati ve.</w>
appro pri
apo io</w>
algor it
ain da,</w>
ad o?</w>
N ob
Europ e</w>
Amé ric
" This</w>
women .</w>
weal th</w>
v em,</w>
ton el
ti cos.</w>
so fri
shif t</w>
se as
receb i</w>
question s.</w>
quer íamos</w>
ple ase</w>
or ç
noi te.</w>
natur al.</w>
mulher es.</w>
mem bers</w>
medic ina</w>
long ,</w>
l ac
keep ing</w>
jun tos.</w>
he im
em :</w>
elec tric</w>
du e</w>
danger ous</w>
cres cer</w>
com um.</w>
bro ken</w>
bi om
bi bli
at as</w>
at ar</w>
any thing.</w>
anal ys
a onde</w>
They 've</w>
P osso</w>
" T
ó p
torn ou-se</w>
to :</w>
temper ature</w>
subjec t</w>
st y
sa indo</w>
s kin
prov a</w>
outr o,</w>
olog ical</w>
men .</w>
meet ing</w>
man :</w>
mal e</w>
interest ing.</w>
id as,</w>
horiz on
fun ny</w>
famíli a.</w>
fal am</w>
estr anho</w>
este jam</w>
comparti lha</w>
care er</w>
bibli o
al -
Washing ton</w>
Ob vi
O lh
Gran de</w>
C oun
Ad am</w>
- nos</w>
wor ry</w>
wat er
t estar</w>
sho w
progr esso</w>
min im
mid d
maneir a,</w>
k ne
identi ficar</w>
g en</w>
fal h
expl ica</w>
ent ly.</w>
ed ge</w>
coun ter
cientí fic
ci ência,</w>
ci ma,</w>
cam panha</w>
billi ons</w>
appe ar</w>
acab ei</w>
S im.</w>
M r.</w>
In d
H ave</w>
E ach</w>
wor se</w>
volun te
torn aram</w>
tem pl
ser ,</w>
sent ado</w>
respon d</w>
regi on</w>
rad io</w>
pic ture.</w>
percep ção</w>
pare cido</w>
p õ
neu tr
mic a.</w>
men inas</w>
inv est</w>
gi u</w>
ger al,</w>
experi ence,</w>
ex clus
effici ent</w>
do ing,</w>
do g</w>
des truc
defin ição</w>
contex t</w>
consegu ia</w>
conflic t</w>
companh ia</w>
c um
benef ícios</w>
base ada</w>
G ar
Eg yp
ê me
ç o.</w>
won der</w>
ti cos,</w>
ti an</w>
tent a</w>
te d
sti l
press ure</w>
predic t</w>
peg amos</w>
pa y
open ed</w>
obrig ado</w>
ic as.</w>
gen c
forc es</w>
foc ar</w>
f ase</w>
especí fi
es se.</w>
d um
contr ac
confor me</w>
communic ate</w>
che guei</w>
cel ular</w>
caracter ísticas</w>
cap able</w>
can cer
cad eia</w>
be ings</w>
b ati
affec t</w>
acred ita</w>
P M:</w>
N ão.</w>
wh ich,</w>
ul .</w>
ture d</w>
tod ay
ter y</w>
studi ed</w>
re fri
po or
p p
o di
ner s,</w>
mús ica.</w>
molécul as</w>
minut os.</w>
luz .</w>
her e?</w>
garr af
extre me</w>
enough .</w>
e i,</w>
distribu ição</w>
dis appear
d on</w>
con fir
bar re
ass assin
aprend endo</w>
adv og
a i,</w>
S tu
Mar s</w>
MI T</w>
Al z
9 9</w>
6 .</w>
1 4
' t,</w>
y et.</w>
train ed</w>
t es,</w>
ri d</w>
responsi ble</w>
projec t,</w>
possu i</w>
port anto</w>
pi c</w>
pal co</w>
op pos
o ;</w>
nature za,</w>
miss ing</w>
mil e</w>
machin e.</w>
leav ing</w>
forc ed</w>
fer tiliz
feed back</w>
faz endo.</w>
escr av
encontr o</w>
el ef
e b
dire to</w>
d os.</w>
compre ender</w>
ch a</w>
cat ch</w>
cad eira</w>
big ,</w>
bactéri as</w>
avi ão</w>
a head</w>
U. K
E :</w>
ô no
z :</w>
wee k,</w>
w ar.</w>
v ender</w>
tex t</w>
te ira</w>
spec tr
s pon
pr a
ph one,</w>
pa ying</w>
moun tain</w>
mostr ou</w>
l óg
it os.</w>
introd uz
important ly,</w>
i o.</w>
hou se.</w>
h or</w>
gr ade</w>
gen i
func tion</w>
fon tes</w>
famil y.</w>
estraté gi
est ória</w>
des enho</w>
dee ply</w>
de fici
chec k</w>
can cer,</w>
ating ir</w>
aque cimento</w>
ap reci
Pod em</w>
M ore</w>
An gel
Alz heim
2 7</w>
tr il
ten s</w>
tam ente.</w>
sup ply</w>
sor r
separ ate</w>
sab ed
rel ógi
r ,</w>
produ z</w>
prac tice</w>
per n
pare de</w>
on das</w>
oc ul
n er.</w>
mã e,</w>
music .</w>
it er
hid den</w>
ga ther
g or
filh a</w>
figh ting</w>
d un
d er.</w>
coloc ando</w>
ci ma.</w>
ch oc
be at</w>
ban he
at ual</w>
and er
We b</w>
Vej am</w>
T :</w>
F az
Actu ally,</w>
2 ,000</w>
1 9</w>
" If</w>
tr us
sup port
stre ets</w>
sti mul
stand ar
sp in
si x
rul e</w>
quadr o</w>
plac ed</w>
par te,</w>
os as.</w>
necess ariamente</w>
mont anh
loc al,</w>
leg s</w>
l ag
in corpor
im mun
il ustr
ide ia.</w>
human a,</w>
glob aliz
gl ass</w>
frequ ência</w>
fore ign</w>
famíli a,</w>
f ill</w>
esc ópi
el abor
del a,</w>
cultur as</w>
clar amente</w>
cic lo</w>
be es</w>
ap ag
ail y</w>
ad ing</w>
N o.</w>
B ab
2 50</w>
ye ah,</w>
work s,</w>
ve -
un st
ti da</w>
tem un
so br
s par
quant as</w>
progr ess</w>
poss ível,</w>
pon ta</w>
phys ics</w>
metr os.</w>
major ity</w>
lu c
j a
iv e,</w>
im un
ide al</w>
en z
en 's</w>
eletric idade</w>
efe tivamente</w>
cus to
cost a</w>
confer ência</w>
centur y.</w>
biolog ia</w>
aj a</w>
W ar</w>
U s
Su l</w>
M er
Chr ist
Car ol
Ale x
1 3
zer o.</w>
vi am</w>
valu es</w>
ter íamos</w>
tele vision</w>
sym bol
star s</w>
sol dados</w>
senti mos</w>
segund os</w>
religi ous</w>
re ação</w>
planet a,</w>
permi tem</w>
pat h</w>
own .</w>
our o</w>
mé todo</w>
li to</w>
gr ound,</w>
depen de</w>
d ying</w>
cre io</w>
compan y,</w>
co n</w>
ci am</w>
atmos p
ativ o,</w>
artist as</w>
ant a</w>
anim als,</w>
ani mais,</w>
al tamente</w>
We 'll</w>
Some times</w>
S ud
Dem ocr
D H:</w>
B G:</w>
" Se</w>
í sti
tod os,</w>
te ?</w>
t ê
son .</w>
sen se.</w>
segur o</w>
pobre za</w>
parti ci
nigh t.</w>
mon it
manag ed</w>
mai or.</w>
loo k,</w>
lo ve,</w>
lef t,</w>
le ts</w>
invi ted</w>
incr íveis</w>
in im
fá cil.</w>
faç am</w>
fal o</w>
ex pedi
est aria</w>
especi fic
es o
em pur
eas ily</w>
dis ord
de c
de ath
cri to</w>
clin ical</w>
cli mb
chef e</w>
che io</w>
busin ess.</w>
benef it</w>
be d
ay s</w>
acredit amos</w>
X X
Ver y</w>
S tar
Por que,</w>
Ear th
5 0,</w>
"N o,</w>
” .</w>
í gen
societ y,</w>
rique za</w>
re turn</w>
pover ty</w>
perceb emos</w>
neur os
nature ,</w>
mús ica,</w>
min ús
le d.</w>
justi ça</w>
institu tions</w>
im plant
i ous</w>
hou se,</w>
fin e</w>
eir a,</w>
doc tor</w>
dis par
differ ences</w>
de d,</w>
con qu
comig o.</w>
co ?</w>
cham am</w>
c aver
c ando</w>
believ ed</w>
b is
ante mente</w>
al mo
He al
G ener
50 ,000</w>
w as.</w>
univer se,</w>
th in</w>
system s.</w>
sym p
suc esso.</w>
so ?</w>
ser .</w>
r ar</w>
pu de</w>
prá tica</w>
prof ound</w>
praz o</w>
pon to,</w>
poder á</w>
pens em</w>
over .</w>
multi ple</w>
mor ning,</w>
m s,</w>
list en
l ind
inten s
igh t
h h
foc o</w>
fil tr
fil os
express ão</w>
effec ts</w>
do :</w>
d ers</w>
compar e</w>
comfort able</w>
ch ur
c ub
bicic le
beb ê</w>
aqu ist
amig os,</w>
ag es,</w>
acab a</w>
S us
S k
R N
Har v
GP S</w>
Dar win
ver á</w>
ven u
univer so.</w>
t le,</w>
sur ge
seman a,</w>
s port
públ ica</w>
possibil ity</w>
pl ásti
pens ava</w>
ne l</w>
multi -
mo ther,</w>
mir r
m ú
m ão,</w>
lin k</w>
le vel,</w>
langu age,</w>
in er
i ção,</w>
hy po
gran de,</w>
g ay</w>
f ying</w>
f us
est ará</w>
est acion
em baixo</w>
e qual</w>
do is,</w>
detal hes</w>
deca de</w>
consider ar</w>
con figur
ch ick
cau ght</w>
car eful
brinc ar</w>
at er
armaz en
ap or
anti g
ambi ente.</w>
G D
2 ,
víde os</w>
ul a</w>
to ward</w>
thin ks</w>
ten ,</w>
tam anh
s entem</w>
pro ve</w>
prev ent</w>
pou co.</w>
no ta</w>
neur oci
necess ary</w>
mou se</w>
min er
men os,</w>
me ters</w>
lo t.</w>
limi tes</w>
hum or</w>
hav erá</w>
has n't</w>
gener ate</w>
g ain
fat os</w>
ex teri
et as</w>
educa ção.</w>
e ar</w>
dram atic
dist in
dig o,</w>
des en
d ance</w>
const antly</w>
cl am
ca used</w>
bar ul
b er.</w>
aut onom
an e
aliment os</w>
al :</w>
N osso</w>
Jap an
Hol ly
D id</w>
An tes</w>
3 0,</w>
ênci as.</w>
ç a,</w>
ár ab
wh om</w>
we aring</w>
val oriz
v ento</w>
us ados</w>
siste ma.</w>
si l</w>
re present</w>
pre ver</w>
pouqu inho</w>
pl ate
país es.</w>
ou vi</w>
off er</w>
n ess
mov es</w>
kid s.</w>
identi fy</w>
he 'd</w>
guerr a.</w>
geno ma</w>
exec ut
ex plan
enjo y</w>
empol g
earli er</w>
dé cad
diz endo,</w>
cân cer.</w>
curr ently</w>
cris is</w>
ci ties,</w>
cerebr al</w>
bur a
apresent a</w>
anc est
analis ar</w>
T .</w>
M ov
K ore
Gos taria</w>
G i
Est ava</w>
Cer to.</w>
Austr áli
whi le,</w>
tron co</w>
tiv ity</w>
t ese</w>
st up
remem ber,</w>
r at
question :</w>
pre jud
pen e
país es,</w>
oper ating</w>
n ano
mín im
mean ing
ma tar</w>
investi r</w>
inv as
inst ant
ide as,</w>
h emis
gos ta</w>
filh os,</w>
esper amos</w>
escrit ório</w>
emplo ye
ele ph
el os</w>
collec t</w>
cogni tive</w>
caminh o.</w>
bal e
avo id</w>
assist ência</w>
aqu ec
aliment ar</w>
a than</w>
a ...</w>
T om</w>
Qu al
N arr
Austr ali
volum e</w>
thre e,</w>
st o
sil ênci
si cos</w>
seguin te</w>
rece p
qu is</w>
políci a</w>
per did
pass am</w>
p sic
mo m</w>
meas ur
h ole</w>
formig as</w>
follow ed</w>
est ados</w>
em pt
e as</w>
e "</w>
diseas es</w>
desig ning</w>
deli ver</w>
cru ci
contam in
conf lito</w>
cientist a</w>
ch ances</w>
camp os</w>
cam ada</w>
bl ing</w>
bab ies</w>
b it.</w>
anál ise</w>
any more.</w>
americ ano</w>
al u
Every thing</w>
Dur ante</w>
8 00</w>
.. .
ê-l o</w>
un less</w>
u se.</w>
trabalh os</w>
trabalh adores</w>
tor s,</w>
to p.</w>
ti vidade</w>
super -
roc k</w>
r aci
propó sito</w>
problem s,</w>
pre -
pon te</w>
pl us</w>
photograp h</w>
per mit
m entes</w>
lo ja</w>
happen s.</w>
h a.</w>
fr u
ex ag
espos a</w>
eas ier</w>
dinos aur
difer ença.</w>
descobri ram</w>
des conhec
depo is.</w>
d os,</w>
convers ar</w>
bl ind</w>
benef its</w>
b ad
an other.</w>
Mar tin</w>
Harv ard</w>
Goog le,</w>
10 .</w>
óle o</w>
í ne
un a</w>
ul tr
u ?</w>
tri but
tr ig
to mor
tend em</w>
t ask</w>
simple .</w>
s ?"</w>
ren ov
re ti
pen se
pen gu
peg ou</w>
par ty</w>
organiz ations</w>
or al</w>
ment s.</w>
me ?</w>
manh ã,</w>
know ?</w>
ir os,</w>
inter pre
in ser
ig ual</w>
hou se
gu n</w>
go ti
exis t</w>
está ,</w>
estab l
err o</w>
empre gos</w>
em path
e ix
decid ir</w>
cresc endo</w>
construí mos</w>
comput ação</w>
cho ices</w>
char ge</w>
atr a
associ ated</w>
arti fici
ap er</w>
alg o,</w>
ag es.</w>
abil ity,</w>
ab as
a .
I tal
"N ão,</w>
vis it</w>
vie w,</w>
v est
to p,</w>
system s,</w>
smar t
sal a,</w>
sab iam</w>
relativ amente</w>
re d,</w>
ra in</w>
pe guei</w>
open ing</w>
med it
mecan ismo</w>
me cân
luz es</w>
imple ment
happen ing.</w>
gradu ate</w>
fascin ating</w>
educa ção,</w>
ed s</w>
dri ven</w>
degre es</w>
de baixo</w>
d os
d aqueles</w>
d ad</w>
cri tic
circ um
cell s.</w>
can to</w>
busin ess,</w>
bi o</w>
behavi or.</w>
anti go</w>
ament os.</w>
Wor l
Sab em,</w>
S ur
S ou
Lif e</w>
" ?</w>
íni o</w>
z inha</w>
tu al</w>
tr is
son h
so ph
soph istica
secon ds</w>
re port</w>
prou d</w>
princípi os</w>
poli tics</w>
poder emos</w>
perfec tly</w>
necess idades</w>
met abol
mes mo
li o</w>
it self,</w>
it s,</w>
ir on
gra us</w>
gam e.</w>
filh os.</w>
fi o</w>
event os</w>
enc es.</w>
eir o,</w>
dol ph
d '
combust ível</w>
com uns</w>
ca m</w>
bas is</w>
b iz
ar :</w>
apro xi
ame aça</w>
K ev
Go od</w>
Every body</w>
Dar win</w>
B ol
’ re</w>
ú til</w>
wat ched</w>
tri es</w>
sab íamos</w>
pres sed</w>
possi ble,</w>
port anto,</w>
poder osa</w>
pic ture,</w>
pesquis adores</w>
paix ão</w>
other s,</w>
orig em</w>
oc u
oc cup
norm al.</w>
mu çulman
molecul es</w>
lo t
law y
iz es</w>
inter i
instr u
imen sion
g all
exper ts</w>
en em
electr ical</w>
differ ence.</w>
d anc
consider ed</w>
cent í
car di
b one</w>
assis tir</w>
ari es</w>
ak ist
aj us
Ste ph
Qual quer</w>
P akist
No bel</w>
N enh
J :</w>
Do es</w>
20 th</w>
últi mas</w>
á-l o,</w>
ve ?</w>
thin k.</w>
sin to
se tem
refri ger
rec ic
real ity.</w>
r hy
pre ench
philos oph
our selves.</w>
os as,</w>
ofer ecer</w>
obs ess
n ation
mí ni
micr ó
mam ífer
luz ,</w>
li ke
interess antes</w>
hi pó
hi er
g s,</w>
foto grafia</w>
forma to</w>
for mar
f it
experiment s</w>
every where</w>
every day</w>
envol v
dollar s,</w>
dispon ível</w>
dis crimin
dig amos,</w>
degre e</w>
de aling</w>
d aily</w>
cul ture,</w>
colo cou</w>
clar o.</w>
cal or</w>
an unci
alg o.</w>
Pen se</w>
Imagin em</w>
Glob al</w>
E D
Ch i
B em</w>
vel ha</w>
val i
v o.</w>
us ?</w>
técnic as</w>
trans porte</w>
tes temun
t our
t entei</w>
t aram</w>
st ar</w>
se j
responsibil ity</w>
rece ived</w>
princípi o</w>
pl es.</w>
pac k
p um
om in
ok ay,</w>
o bra</w>
norm al,</w>
mostre i</w>
mes es.</w>
merc ado.</w>
maravilh osa</w>
ir mão</w>
identi dade</w>
h ate</w>
fro m.</w>
expect ativa</w>
estran ge
es te,</w>
elem ent
diag nó
descri bed</w>
compu ter.</w>
col ap
che ia</w>
caf é</w>
build ing,</w>
br it
b uc
at a.</w>
am es</w>
ad mi
V ai</w>
S pe
S il
N em</w>
C ity</w>
3 .
ver i
v as</w>
tur as</w>
tru e,</w>
str ess</w>
reg im
profession al</w>
perman ec
n an
mortal idade</w>
man age</w>
it ando</w>
ingl ês</w>
in struc
id imension
f ême
estraté gia</w>
es cap
econom y.</w>
dist inc
di vul
desenvolviment o,</w>
defini tion</w>
complex idade</w>
commer cial</w>
co ld</w>
cle an
cer tos</w>
ativ e,</w>
aster o
af for
aber to</w>
The ir</w>
S om
S ec
P ho
Mar k</w>
M ur
H en
Centr al</w>
Can ad
y ester
w are</w>
ther e?</w>
th os
tecn ológ
st uck</w>
serv ices</w>
sa i</w>
rece be</w>
propor cion
projet o.</w>
posi ções</w>
pic ked</w>
pac e</w>
pa i,</w>
oxy gen</w>
oun ding</w>
organiz ed</w>
organ ic</w>
ordin ary</w>
o par
o corr
ne goti
moment s</w>
min d
lug ares.</w>
li x
ire i</w>
inter ação</w>
in esper
in as,</w>
impress ão</w>
gro wn</w>
gran de.</w>
gas es</w>
enten demos</w>
el o
desenvolviment o.</w>
deli ver
d amos</w>
consequ ências</w>
concer ned</w>
con gel
comple ta</w>
chem ic
at or.</w>
arti st</w>
ac cep
a -l
Yor k.</w>
O ce
M ex
Isra el</w>
I S
Des de</w>
y ellow</w>
verdadeir amente</w>
tr ick
sufici ente.</w>
speci es.</w>
shi p.</w>
segur ar</w>
rit mo</w>
qu atr
produc ing</w>
por quê</w>
pass amos</w>
par as
op ol
ologi a,</w>
o pos
no mes</w>
n at
m ?</w>
lo w,</w>
levant ar</w>
le vel.</w>
lat er.</w>
j as</w>
hor as,</w>
high est</w>
had n't</w>
gr ess
flor estas</w>
faz er?</w>
fa ix
ey es.</w>
estud ante</w>
em ent,</w>
diz er.</w>
desenh ar</w>
daugh ter</w>
cru cial</w>
conhec i</w>
con den
com e.</w>
cheg ando</w>
biolog y</w>
avel mente,</w>
aud it
ar t,</w>
ador o</w>
P i
Co me</w>
Ch am
óti ma</w>
árv ore</w>
want .</w>
wa ke</w>
trabal hei</w>
st un
s ending</w>
relacion amento</w>
ra b</w>
pur pose</w>
prote ção</w>
pris ão</w>
per turb
opportuni ties</w>
olh armos</w>
neg ative</w>
ne d,</w>
medic ine</w>
limi ted</w>
les son</w>
laun ched</w>
is h,</w>
ir o.</w>
interess ado</w>
inte ira</w>
influ ence</w>
in ner</w>
ger enci
fís ico</w>
em ent.</w>
econô mico</w>
do m.</w>
cr ist
cor al</w>
consci ous</w>
confer ence</w>
com um,</w>
cheg am</w>
ch ão</w>
can ,</w>
ar gue</w>
ab out
Rep ub
R io</w>
R ight</w>
Or gan
M y
Est ão</w>
Audi ence:</w>
2 2</w>
íci o.</w>
ç o,</w>
we ar</w>
vil a</w>
v á</w>
under ne
tiv o,</w>
ter mo</w>
ten hamos</w>
te -
s ter</w>
recur s
prof it</w>
pro tó
pergun tei</w>
passi on</w>
paper ,</w>
pa is,</w>
p ingu
ni a.</w>
mã os.</w>
mus ici
minut es.</w>
ment o,</w>
los ing</w>
in -
il ing</w>
get ,</w>
fo gu
fin s</w>
esper a</w>
enter tain
en tic
ell s</w>
dar k
cri aram</w>
contr ib
compu ter,</w>
col h
cam is
brin qued
br aç
bo ys</w>
blo que
b es</w>
b ar</w>
ativ es</w>
ar ."</w>
aqui ?</w>
ap par
ang ing</w>
ando -se</w>
ambi ente,</w>
am anh
N ada</w>
Me us</w>
Fren ch</w>
Deix e-me</w>
7 00</w>
2 4
íci o,</w>
vol tei</w>
ur as</w>
tir am</w>
techn ical</w>
t s
suggest s</w>
st ates</w>
sangu íne
sa iu</w>
s mel
re main
que im
pris on
ph one.</w>
ph as
peix e</w>
ou vir
olh ada</w>
me g
lâ mp
job ,</w>
is tic
intelig ente</w>
for em</w>
fab ul
eç a</w>
escre vi</w>
enten dimento</w>
el se,</w>
dor m
dist or
compro me
co o
ch as
cent av
c ão</w>
ar t.</w>
Pal est
P aci
P ac
M ag
H y
E .
B F:</w>
9 9
"A h,</w>
wh enever</w>
trabalh amos</w>
st ood</w>
set t
senti do,</w>
segund o,</w>
scal e.</w>
ru im.</w>
research ers</w>
rec y
process os</w>
power ed</w>
pol lu
perspec tive</w>
p és</w>
oppos ite</w>
o ?"</w>
membr o</w>
in s,</w>
in k
i -l
gas tar</w>
form er</w>
fin al.</w>
exist ência</w>
ev ent</w>
especí fic
equival ent</w>
equip amento</w>
elh os</w>
el y,</w>
e da</w>
direc t</w>
desempen ho</w>
cuid ar</w>
cont act</w>
com érci
cirur gia</w>
cham ou</w>
carr o,</w>
car ne</w>
car e.</w>
c ór
bre ast</w>
beg ins</w>
anthro p
abr aç
Pro jec
Pen so</w>
Ob ama</w>
Lon don
Europe ,</w>
D ere
Clar o,</w>
B ,</w>
6 5</w>
50 .</w>
200 8,</w>
" U
your self,</w>
whe el
ur a,</w>
trans c
str u
sti c</w>
socie ties</w>
ri cos</w>
qu ente</w>
perfeit amente</w>
os -
obst á
observ ando</w>
norm ally</w>
n ú
mist ak
mi x</w>
loc al.</w>
j ardi
ist s.</w>
inh o,</w>
hist ór
hi p
hav am</w>
hand s.</w>
get .</w>
for ne
es teve</w>
difer enç
d ly,</w>
col óg
cent o.</w>
bir ds</w>
astr on
arr is
af as
accoun t</w>
M R
G od
Fir st,</w>
ú nci
ôni bus</w>
á-l as.</w>
w ave</w>
utiliz ar</w>
ur g
tre ated</w>
tion ?</w>
tel escópi
socied ade.</w>
sam e.</w>
respec t</w>
res cu
rapid amente.</w>
ran dom</w>
pud ermos</w>
produz em</w>
pr ol
pa ir
outr a.</w>
no is
mã es</w>
my self.</w>
me tal
lo ve.</w>
it s.</w>
it 'll</w>
introdu ce</w>
inh o.</w>
inde ed</w>
in do
h ora,</w>
gu y,</w>
funcion am</w>
es crito</w>
er a.</w>
equilíbri o</w>
dra wing</w>
difí cil,</w>
de vo
cur to</w>
cons id
con tempor
combin ação</w>
col a</w>
bot to
bal ance</w>
b ound
arg ument</w>
al titu
T es
S we
Quant os</w>
Med ic
L ou
F il
D aí</w>
Aqu i,</w>
à qu
w av
vol ta,</w>
terr it
t able.</w>
st af
sh oc
secon d,</w>
se ven
real idade.</w>
plata forma</w>
pe ac
ou :</w>
new s
n a
mov endo</w>
mant ém</w>
loc aliz
increas ingly</w>
il has</w>
i con
happen ,</w>
happ y.</w>
gê ner
govern ment,</w>
four th</w>
f ell</w>
ex pos
esquer da,</w>
es por
entr ou</w>
enfer meir
end er
e is</w>
dispon íveis</w>
compan he
com ida.</w>
cli ma</w>
charac ter</w>
brinc ad
b s</w>
az .</w>
ativid ades</w>
S r.</w>
Pro f
Ph ili
M el
Deix em-me</w>
D ani
2 3</w>
ê-l os</w>
époc a.</w>
w ar,</w>
un idade</w>
ti g
so fr
sk y</w>
sequ ência</w>
segu indo</w>
s elling</w>
rel ax
rec entemente,</w>
quí mica</w>
pl ay,</w>
pesso al.</w>
o "</w>
ne t</w>
metr os,</w>
materi al,</w>
mat ter.</w>
mark ets</w>
lev am</w>
land s</w>
infra estrutura</w>
impr ens
h aja</w>
gl aci
fro m,</w>
feit o,</w>
fac ing</w>
fa iled</w>
está .</w>
em pati
def en
cr é
compreen são</w>
colo quei</w>
ci ber
ch estr
cen a</w>
b and
av am,</w>
aspec tos</w>
ambi entes</w>
al er
ador a.</w>
Tr abal
Sem pre</w>
Lon dr
L eg
K B:</w>
H ist
D en
C A
200 7,</w>
y "</w>
ver mel
teen ag
t ang
s ide
resear ch,</w>
rel atively</w>
re tr
r ay</w>
projet o,</w>
pr êmio</w>
pergun tar
ous ly.</w>
máxim o</w>
mei o,</w>
mar c
maneir a.</w>
leg al,</w>
l um
l os</w>
interess ados</w>
inter rup
inde ed,</w>
h eli
h ado</w>
guerr a,</w>
forwar d.</w>
experienc ed</w>
ell .</w>
do míni
do m,</w>
divul g
dis to</w>
descober tas</w>
condi ção</w>
col leg
build ing.</w>
b it,</w>
b ela</w>
aprendiz ado</w>
answ ers</w>
an trop
al es</w>
advant age</w>
a parece</w>
V en
S un
N esse</w>
Mul her
Fu i</w>
F e
C ould</w>
B en</w>
Ar ab
A br
ú til
íri to</w>
z ed</w>
y r
wi rel
ve i</w>
trein amento</w>
tr ade</w>
spo ke</w>
ser mos</w>
sequ ence</w>
ris cos</w>
propried ades</w>
proc esso,</w>
pres er
pr ati
plac es.</w>
our selves,</w>
micro -
mei os</w>
lef t.</w>
i ther</w>
ho w,</w>
heal th,</w>
garo to</w>
fábr ica</w>
fr ase</w>
faz endo,</w>
fa ir</w>
experi ences</w>
equival ente</w>
e k</w>
del as,</w>
deix ando</w>
d an
cri atividade</w>
cri ativid
cr on
cor respon
compon entes</w>
cabeç a,</w>
bir th
beli ef</w>
av is
att ack</w>
ar te.</w>
answ er.</w>
alis t</w>
acion al.</w>
ac cording</w>
a prov
Vi et
So vi
P as
M en
C ent
á-l os,</w>
vol tando</w>
técn ica</w>
traf fic</w>
sug ere</w>
spe e
situ ações</w>
sa y.</w>
s quar
re je
re gener
r ub
que i
pág inas</w>
problem as,</w>
preg n
pre dat
pre d
pl ástico</w>
new s.</w>
n un
mostr ar-lhes</w>
mis er
micros cópi
mark et.</w>
lap top</w>
l er.</w>
k itch
infrastruc ture</w>
incenti v
in tim
imagin em</w>
imagin ação</w>
hor m
hi on</w>
gar ot
ex trac
ex -
evolu tionary</w>
elem ents</w>
defin ir</w>
d ."</w>
cor t
conven cion
conv ince</w>
control led</w>
complex ity</w>
ci ência.</w>
can .</w>
brilli ant</w>
bran co</w>
ber am</w>
be ar</w>
aument a</w>
anim als.</w>
and ando</w>
alis mo</w>
al one.</w>
aer o
acc ess
N acional</w>
N .</w>
Ent re
E ric</w>
E con
A rab</w>
2 6</w>
100 ,000</w>
viol ent</w>
vel h
ul trap
trou ble</w>
torne i</w>
sta tem
speci es,</w>
simul tane
san it
rid icul
respe it
requi res</w>
re torno</w>
raz o
r í
pos t-
por cento</w>
palestr a,</w>
on line.</w>
nú cle
morre r</w>
mathema tical</w>
mas cul
li t</w>
jorn al</w>
intellig ent</w>
har d.</w>
for m,</w>
esp írito</w>
err os</w>
dist ingu
disser am:</w>
discus são</w>
decid iu</w>
cop y</w>
contr at
child hood</w>
cham adas</w>
carr o.</w>
bu ying</w>
bi óti
beli ef
att ach
ani mais.</w>
an gi
am i
altern ative</w>
ac cept</w>
You 'll</w>
W ould</w>
S ei</w>
H el
Francis co</w>
A ir
3 2</w>
ôni o</w>
á s,</w>
wrong ,</w>
windo w</w>
w ed
vo zes</w>
univer so,</w>
ti a</w>
surpris ed</w>
sug gest</w>
struc tures</w>
religi ão</w>
rec ently,</w>
r ace</w>
promis e</w>
plac es,</w>
part ner
on da</w>
olh os,</w>
n ingu
ment o.</w>
magn é
li xo</w>
let ter</w>
iv o</w>
im pl
il a</w>
fo go</w>
fl a
es -
dirig ir</w>
dire ita,</w>
democr á
cor ner</w>
construí do</w>
coffe e</w>
ce g
carr ying</w>
busin ess
bus car</w>
basic ally,</w>
b ird</w>
aç ú
av am.</w>
at ori
an other,</w>
ace itar</w>
Thre e</w>
TV ,</w>
Ou tro</w>
M oun
Le on
F und
F un
D a</w>
C os
- like</w>
"O h</w>
ân ico</w>
vant agem</w>
tr oub
ti ll</w>
su ic
sol id
simple ,</w>
shi p,</w>
se quer</w>
s crip
ráp ido,</w>
rá dio</w>
rol l</w>
regi ões</w>
question s,</w>
qu ad
propri edade</w>
praz er</w>
ple ,</w>
ped aços</w>
oxig ênio</w>
oc cas
mir ac
los s</w>
lev ando</w>
leader ship</w>
kill ing</w>
inv ent</w>
identi fic
habit at</w>
h il
gri pe</w>
gre at,</w>
g ord
flo or</w>
far mers</w>
fal ar.</w>
ev ents</w>
emplo y
effor t</w>
ear th
do ."</w>
cons ig
ci ties.</w>
chan nel
ch o</w>
cas e.</w>
car e,</w>
bom bar
b os
aspec to</w>
adul t</w>
a ére
Qu e
Nor te</w>
M S</w>
Lon don</w>
J es
Isra el
Acre dito</w>
A pr
ú te
ç ão
you ."</w>
vont ade</w>
vari edade</w>
to mar
them selves,</w>
t we
sub ir</w>
sh all</w>
senti do.</w>
ros to</w>
rob ó
repres ents</w>
primeir o,</w>
person aliz
olh ou</w>
nam or
long- term</w>
l eng
j apon
inteir o.</w>
in oc
ill ustr
ide ia,</w>
gr atu
four ,</w>
foto graf
fl ag
eç o</w>
explain s</w>
est ação</w>
engenhe iros</w>
deli ber
de mais.</w>
d ess
cul ar</w>
convinc ed</w>
contr as
conex ões</w>
con c
comun idade,</w>
complex o</w>
car d</w>
bl ock</w>
astr onom
ani vers
al idade.</w>
adv anced</w>
W ol
V eja</w>
TED x
Se gun
S E
Pod er
O k.</w>
N el
H un
E du
Chic ago</w>
C oc
Alex and
á vel
É ,</w>
wil d</w>
vis ion
vari ety</w>
scal e,</w>
s oub
religi on</w>
pris on</w>
precis ar</w>
pou co,</w>
poder oso</w>
olh os.</w>
ol ,</w>
ocid ent
n ação</w>
li ked</w>
lev aram</w>
leav es</w>
investi mento</w>
interest ing,</w>
in sur
i ção.</w>
human ity</w>
geno me</w>
fin ished</w>
every where.</w>
es te.</w>
equ ili
en caix
emo ções</w>
emerg ing</w>
diz ia</w>
deix e-me</w>
cy cle</w>
crianç a.</w>
conf us
circum st
cientí fica</w>
cho os
ch air</w>
ce i</w>
br and</w>
boo ks.</w>
bl in
biblio tec
ber g</w>
artist s</w>
artic le</w>
ar ma
ap p
ag ul
ador a,</w>
Steph en</w>
M ah
J im</w>
Do is</w>
Br on
Ap ple</w>
wee k
v ital</w>
v ess
tir a</w>
ti s</w>
te :</w>
sur vive</w>
sum mer</w>
siste ma,</w>
s um</w>
rhy th
requ ire</w>
re d.</w>
r um
profun da</w>
prob abilidade</w>
previ ous</w>
poss íveis</w>
pode -se</w>
per deu</w>
ou se</w>
organ ism
obrig ada.</w>
n ation</w>
n 't.</w>
mé dica</w>
model .</w>
men ores</w>
man 's</w>
luck y</w>
jan ela</w>
inclu de</w>
in visible</w>
import ance</w>
hour s,</w>
har d,</w>
graç as</w>
fic ava</w>
f old</w>
expen si
estat ísticas</w>
enti l
endo :</w>
elé tric
eletr ôni
dispositiv os</w>
d ly</w>
cros s</w>
creativ ity</w>
conv ic
cham ados</w>
certe za,</w>
b ank</w>
ativ os.</w>
ant s,</w>
am on
al tura</w>
ac ti
S ince</w>
S he
R ock
P os
M as
L em
L ast</w>
G ab
F el
D ev
20 .</w>
í a</w>
érci to</w>
us adas</w>
tiv éssemos</w>
th -
ter ço</w>
t sun
t ough</w>
stor y
scienti st</w>
satel lite</w>
ráp ida</w>
rec ente</w>
públi co.</w>
pres tes</w>
pre ocu
polí tico</w>
pesquis a,</w>
pene tr
pen sou</w>
par te.</w>
pain t</w>
no te</w>
microb es</w>
mat ch</w>
ma ç
lu x
li ções</w>
less ons</w>
lands cape</w>
intelig entes</w>
independ ent</w>
in o,</w>
in as.</w>
fli es</w>
faz ende
faz .</w>
fas h
facil mente</w>
f ,</w>
ex press</w>
espe tac
er am,</w>
do mes
dire tor</w>
câmer as</w>
cr it
consegu iram</w>
com for
cientí fi
ci v
cas os,</w>
car ta</w>
ca ir</w>
az ,</w>
at titu
ar do</w>
any thing,</w>
anal og
an on
T as
R a
Quer emos</w>
O h</w>
Europ a,</w>
201 0,</w>
ênci as,</w>
wor ried</w>
wer e,</w>
t ly.</w>
stor ies.</w>
st age,</w>
remo te</w>
prov ar</w>
pro fundo</w>
pergun ta:</w>
p am
organis ms</w>
obvi amente,</w>
n en
molécul a</w>
lig ar</w>
j ac
iz emos</w>
invest ment</w>
in clin
hope fully</w>
graph y</w>
fol ks</w>
fil ho
faz iam</w>
ex act</w>
ent y</w>
enc es,</w>
déc adas</w>
cul ture.</w>
cri am</w>
cour se.</w>
construc tion</w>
comple to</w>
compe t
communic ation</w>
com ida,</w>
cen ário</w>
car a,</w>
anti ga</w>
al tru
al em
agr ess
Wh ile</w>
W ill</w>
T ivemos</w>
R B:</w>
Ira q
B re
ôn ica</w>
í -l
wh at,</w>
vie w.</w>
v ô
v am</w>
usu ários</w>
tw o.</w>
tr os</w>
to o
think ing.</w>
the -
sw im
st air
ru ins</w>
prim ary</w>
pr o</w>
po em
particip ar</w>
other wise</w>
ocorre u</w>
oce ano.</w>
o br
no tas</w>
net works</w>
min i
micro bi
market ing</w>
lut ar</w>
j i
ir m
in acredit
hid rog
hel p.</w>
h ad,</w>
grap h</w>
gr ama</w>
fi f
fe wer</w>
ey es,</w>
eur ope
entr ando</w>
ear th</w>
dra w
dou ble</w>
divers as</w>
direc tion</w>
de dos</w>
cre atures</w>
centr os</w>
caus ar</w>
bar ri
b low
ap pl
anti bio
ab rig
Bos ton</w>
B .</w>
5 .000</w>
" É</w>
y st
wo man,</w>
vol tar
ver emos</w>
vel hos</w>
underst and
tril lion</w>
torn amos</w>
tel y,</w>
ta ?</w>
sk elet
si an</w>
sempre .</w>
ri r</w>
r ico</w>
pré sti
pho to</w>
pense i:</w>
p iz
on e
necess it
n ão?</w>
morre u</w>
mand ar</w>
lembr a</w>
jus tice</w>
hospit al.</w>
gr as
genc y</w>
feliz mente</w>
fel low</w>
fat or</w>
fas hion</w>
fac ts</w>
f o</w>
escon did
er ."</w>
em présti
econom iz
dist ance</w>
des esper
conclus ão</w>
comun idade.</w>
co c
cidad es.</w>
bi do</w>
av ent
atmos fera</w>
ann ounc
al ia</w>
ain da.</w>
ain .</w>
after no
Washing ton,</w>
Hou ve</w>
H er</w>
Don al
3 ,000</w>
00 ,</w>
0 s,</w>
í ram</w>
zon a</w>
ultima tely</w>
ulti mate</w>
tur n
surpres a</w>
stor ies,</w>
so ma</w>
si .</w>
s and</w>
room s</w>
regr a</w>
reas on,</w>
quo te</w>
psy cho
proc esso.</w>
pes ca</w>
perce be</w>
passion ate</w>
pass aram</w>
partic les</w>
p y
of -
oce anos</w>
o le
n it
mor te.</w>
lí der</w>
lider ança</w>
jud g
it ’s</w>
it ual</w>
in form
ill ,</w>
g ur
g s.</w>
fle x
fa ther
estud ando</w>
est re
entend em</w>
descre ver</w>
democr atic</w>
d en,</w>
cy ber
cres cer
com e,</w>
circ unst
cidad es,</w>
cal ç
c alling</w>
bro ke</w>
at os.</w>
arr as
apar elho</w>
am arr
T re
Ste ven</w>
Pro v
P an
Face book,</w>
F ound
C in
Bo b</w>
Andre w</w>
200 0,</w>
1 1
we ird</w>
vel y,</w>
v an
tissu e</w>
thes e,</w>
so -
s ,"</w>
refu gi
re ais</w>
r uns</w>
quick ly.</w>
pho tos</w>
paper .</w>
pan de
pain ting</w>
model ,</w>
merc ado,</w>
mat ters</w>
l au
invent ar</w>
instr umento</w>
homen s,</w>
home m,</w>
hel l</w>
g ain</w>
frac as
forma ção</w>
fin ish</w>
especial istas</w>
ente :</w>
encour age</w>
econô mica</w>
depen ds</w>
deix em-me</w>
decad es</w>
cus ta</w>
corr ida</w>
contr ário</w>
co ordin
co orden
co ck
cardí ac
cap ita</w>
b ing</w>
ature .</w>
ap ,</w>
an únci
agricul tura</w>
Pen sem</w>
Mu se
In felizmente,</w>
G h
Fran k
Esper o</w>
B lu
21 st</w>
zo om</w>
wi f
tur es,</w>
suffer ing</w>
spe ech</w>
son o</w>
sensi tive</w>
seman as,</w>
segre do</w>
sav ed</w>
sal as</w>
remédi os</w>
relationshi ps</w>
pré dios</w>
princi ples</w>
planet as</w>
pergun ta.</w>
os ;</w>
opini ão</w>
neur al</w>
ne d.</w>
mo thers</w>
micró bios</w>
men ina</w>
mad eira</w>
lim ite</w>
le ge</w>
lay er</w>
is on</w>
ir rit
interne t,</w>
har mon
garanti r</w>
gam e,</w>
fr ame
for d,</w>
facul dade</w>
f um
ex posição</w>
estr ada</w>
edifíci o</w>
dem and</w>
control .</w>
companhi as</w>
cat astr
cap ture</w>
beauti ful,</w>
ativ os,</w>
at or,</w>
artic ul
ar te,</w>
apos ent
am ing</w>
algu ém,</w>
afir ma
ad iv
ac tion.</w>
YouTu be</w>
Th en,</w>
Inste ad</w>
Inste ad,</w>
I ’
G and
Fl or
C lin
% ,</w>
" Nós</w>
" Hey,</w>
ã s</w>
wis dom</w>
vie w
veícul o</w>
v ici
tr ês,</w>
today 's</w>
terr ível</w>
terap ia</w>
t ados</w>
sur giu</w>
soldi ers</w>
re move</w>
pris ion
philos op
par alis
orgul hos
olog ists</w>
o bras</w>
mar ido</w>
lad es
kilome ters</w>
j az
iv ing</w>
it amente</w>
introduc ed</w>
intern acional</w>
ik e,</w>
hor a.</w>
gos tar
gan ha</w>
friend s.</w>
fres h</w>
fl u</w>
fil me,</w>
fed eral</w>
factor y</w>
evid ências</w>
ever ,</w>
est a,</w>
epidem ia</w>
efici ente</w>
dis curso</w>
des culp
cân cer,</w>
cri mes</w>
conflit os</w>
cl áss
ch ron
campa ign</w>
bri ght</w>
bat er
atenç ão.</w>
assum e</w>
aprend em</w>
an xi
ag entes</w>
acab amos</w>
absolut e</w>
ab sur
Sa har
S ig
Presid ent</w>
Po in
200 9,</w>
"S im,</w>
" It's</w>
ó xi
y o
y ?"</w>
typic ally</w>
ta il</w>
que ?</w>
pres ença</w>
preocup ar</w>
polí tica,</w>
poder ão</w>
plan ning</w>
phys ici
par ents,</w>
pain t
outr a,</w>
ou vindo</w>
ol .</w>
n avi
magne tic</w>
loc k</w>
las er</w>
jum p</w>
isso ."</w>
intel lectual</w>
hum il
happen s,</w>
gas ol
for th.</w>
feliz .</w>
exist ing</w>
every thing,</w>
err y</w>
detec tar</w>
de cre
cur a</w>
co ok
chang ed.</w>
boo k
bo at</w>
as ;</w>
are ia</w>
ar ms</w>
ar ma</w>
anç as.</w>
any way,</w>
aliz e</w>
Te ch
Sh ak
D el
Ar chi
Al go</w>
. com
êni o,</w>
ã es</w>
á to
w ind
w and
to ma</w>
tent ativa</w>
tax as</w>
st one</w>
sil enci
sabed oria</w>
s ick</w>
ri ver</w>
redu ção</w>
reach ed</w>
pes ar</w>
perí od
p her
om .</w>
og en
ma xim
le ?</w>
lab or</w>
is ter</w>
inter action</w>
increas ing</w>
ig re
hy per
hel p
govern o,</w>
gos tamos</w>
garo ta</w>
ex ter
es "</w>
ep is
enc y,</w>
elé tri
ed ing</w>
e w
e tes</w>
dimens ões</w>
defin ed</w>
de cep
d ança</w>
cus tom
coun t</w>
corr ente</w>
combin ation</w>
co incid
celul ares</w>
can ção</w>
brilh ante</w>
ativ as.</w>
arg umento</w>
amaz ing.</w>
ajud ou</w>
ad ed</w>
Ser ia</w>
P aquist
Japan ese</w>
Econ om
Bro ok
An t
í st
wh y.</w>
wee k.</w>
v o,</w>
tal k.</w>
spac es</w>
roup as</w>
reuni ão</w>
re gre
quebr ar</w>
produc tive</w>
proc ed
pre val
pi ano</w>
per form</w>
par cer
or e,</w>
oce an.</w>
o !</w>
n or</w>
month s.</w>
materi al.</w>
mai or,</w>
l -
is try</w>
inter agir</w>
imedi at
il o</w>
ho tel</w>
ho tel
fam oso</w>
es pon
encontr ou</w>
eir o.</w>
dinâ mica</w>
di e.</w>
desig ualdade</w>
des astr
cresc ente</w>
competi ção</w>
clos ed</w>
bl ind
aul as</w>
as ton
acti vi
a king</w>
S ing
N um
Microsof t</w>
M od
Bang lades
Ar th
Any way,</w>
Al ber
00 ,000</w>
.. ."</w>
ó logo</w>
z ing</w>
wh o,</w>
veícul os</w>
ur a.</w>
to ."</w>
thre at</w>
t able,</w>
sof istic
soci ais,</w>
sm all,</w>
sign al</w>
sequ enci
senti a</w>
secon d.</w>
rough ly</w>
red or.</w>
re main</w>
re lease</w>
r af
proble ma
pod íamos</w>
ol hei</w>
nu ven
nor mal
no ise</w>
mei o.</w>
keep s</w>
inter ag
inte lectu
inse tos</w>
ing -
in sis
go ing.</w>
est y
es cu
es ?"</w>
en coun
do pam
dis rup
des is
de ad
cre ation</w>
cool .</w>
conhec e</w>
comb ine</w>
ce pt
cas amento</w>
beb ê
ba irr
b um
atmos fer
aparec eu</w>
anim al.</w>
ain s</w>
adul tos</w>
acion ais</w>
ac compl
a pe
Vej am,</w>
PI B</w>
Lo ok,</w>
L á</w>
Gener al</w>
G ul
C D
- and-
women 's</w>
v em.</w>
ti st
ti e</w>
ta il
t ar.</w>
stre t
socied ade,</w>
sh ado
ri es</w>
respons ável</w>
rece beu</w>
real ity,</w>
re min
que da</w>
pássar os</w>
prim e</w>
press ion
pot enti
pl até
mág ica</w>
m s.</w>
log ia</w>
livr o.</w>
li tes</w>
jus tic
i p
heal th.</w>
g em</w>
funcion ar.</w>
fun .</w>
fron tal</w>
forma m</w>
fascin ante</w>
f ati
ess ential</w>
escal a.</w>
er -
enc y.</w>
dr y</w>
diz endo:</w>
distribu tion</w>
decid iram</w>
d as,</w>
conhe ço</w>
compan y.</w>
cent uri
cas es,</w>
bro ther</w>
blo g</w>
aç ão?</w>
aw ful</w>
ar ts</w>
apar ência</w>
amoun ts</w>
ali ve.</w>
ali en
ajud ando</w>
U.K .</w>
Su per
Primeir o</w>
Nig er
N ossos</w>
L at
In de
Ha iti
G ro
Fr ank</w>
De us.</w>
Clar o</w>
Br un
9 5</w>
" Do</w>
ó sof
your self.</w>
wh el
w all
u sou</w>
tir .</w>
taref as</w>
senti mentos</w>
sab e.</w>
re fin
rapid amente,</w>
ra tes</w>
próxim as</w>
provid ing</w>
po p</w>
po bre</w>
play s</w>
pergun ta,</w>
pas t,</w>
p ão</w>
ou vi
ologi a.</w>
obser vamos</w>
montan has</w>
le ver
iz ation</w>
itu de</w>
it ting</w>
is mos</w>
ir mãos</w>
inf ância</w>
identi ty</w>
ide ias.</w>
human idade.</w>
h i</w>
gen es.</w>
ga p</w>
fu te
fos sil</w>
fic ado</w>
fal ar,</w>
f a</w>
do mé
dist úr
difer enci
design s</w>
derr ub
defini tely</w>
de p
cor tar</w>
cont ac
bic y
believ e,</w>
au x
anc es.</w>
ali ve</w>
al ists</w>
afric anos</w>
S y
Mundi al</w>
L or
Heal th</w>
F ri
D ire
C enter</w>
B at
Aqu ele</w>
. C.</w>
. '</w>
wor ds.</w>
w e,</w>
vent u
v a,</w>
underne ath</w>
un fortun
ultrap ass
test ing</w>
terr a.</w>
ter -
tent am</w>
tel l
technolog ical</w>
te cl
spi ri
specific ally</w>
sophistica ted</w>
sign als</w>
shap es</w>
se ts</w>
resist ência</w>
res tr
res g
remem ber
re place</w>
re ma
quest ão.</w>
pul led</w>
prov ável</w>
prepar ed</w>
pl anos</w>
pe cu
pais agem</w>
p up
p ad
ni tr
negr os</w>
mist ura</w>
mathema tici
lug ares,</w>
join ed</w>
inven ção</w>
inteir amente</w>
indivídu o</w>
in test
imagin e,</w>
hypo thes
human s,</w>
happ y,</w>
fo o
fo me</w>
exper t</w>
es '</w>
engine ers</w>
en do?</w>
empt y</w>
dire cion
de plo
de manda</w>
d uc
conscious ness</w>
clo th
chil d.</w>
categ or
busin esses</w>
bre ve</w>
bo a.</w>
bal lo
ate n</w>
as so
as ks</w>
are a.</w>
am a,</w>
ad ot
S tor
S mi
O c
Nov amente,</w>
MI T,</w>
Ir aqu
Institu te</w>
I I</w>
B l
Ant ár
A -
óxi do</w>
ótim o.</w>
want ,</w>
víti mas</w>
viaj ar</w>
tó graf
tom ando</w>
tic ul
ti mos</w>
them ?</w>
tem os,</w>
slid es</w>
sim pli
seguin te,</w>
saf ety</w>
rais ing</w>
r a.</w>
quími cos</w>
quant um</w>
qu ân
presid ent</w>
poin ted</w>
pe de</w>
pass os</w>
par t,</w>
pap el.</w>
over whel
o be
nav ig
n é
mulher ,</w>
milit ares</w>
men tion</w>
meaning ful</w>
lut ando</w>
je ito,</w>
ho ping</w>
h air</w>
ganh ou</w>
faz em.</w>
fant ás
exis tir</w>
exhi bi
ente mente.</w>
en :</w>
ed es</w>
e igh
do es.</w>
diz em:</w>
dev ices</w>
des ire</w>
dentr o.</w>
cresc eu</w>
consequ ences</w>
compre end
comig o,</w>
collec tion</w>
car s,</w>
brea king</w>
as k,</w>
ar -
anti bióti
alun o</w>
adiv inh
ad ded</w>
ac res
a c</w>
V is
Tr ês</w>
Scho ol</w>
M .</w>
Kev in</w>
Ind us
Califor nia</w>
Ben jam
A ri
águ as</w>
w oul
univers ity</w>
univers it
tip o.</w>
séri o.</w>
sub mar
smel l</w>
sh ir
segund o.</w>
requi red</w>
profission ais</w>
pod er.</w>
pa co
ofer ece</w>
no thing.</w>
n estes</w>
n ar
mid -
mention ed</w>
me i</w>
larg ely</w>
l in</w>
igh ts</w>
hor as.</w>
hol ds</w>
heav y</w>
gre enh
ger ações</w>
func tion
fu el
for e,</w>
está gio</w>
est ad
especi aliz
entr op
el ite</w>
ed y</w>
e pi
cut ting</w>
cur e</w>
cr ash
cor ação,</w>
competi tion</w>
bomb a</w>
b un
att ack
ataqu es</w>
at os,</w>
ar em.</w>
an gr
amig os.</w>
ag e
] ,</w>
V ide
Tod ay</w>
T y
S is
Repub lic
On ly</w>
L ab
K ing</w>
K i
Ingl aterr
G over
G o</w>
F ey
An tar
-l he</w>
"S ab
ín u
í de
ér amos</w>
á-l a,</w>
wee ks,</w>
viv o.</w>
u í
tur es.</w>
tri vi
stud ents,</w>
stre et
sol ving</w>
softw are,</w>
so le
so a</w>
s mi
respos ta.</w>
respons áveis</w>
represent am</w>
rel ate</w>
regul ar
põ e</w>
plan e</w>
percent age</w>
perce beu</w>
per forming</w>
par k</w>
on ?</w>
o ",</w>
nam es</w>
n ele</w>
montan ha</w>
minús cul
mesm os,</w>
mark et,</w>
m á</w>
let ters</w>
l ess.</w>
ir os.</w>
incr ível,</w>
in ess</w>
husb and</w>
happen ed,</w>
go ing,</w>
fiz er</w>
fis her
fe i
experiment ar</w>
em ber</w>
diminu ir</w>
differ ent,</w>
depend ent</w>
del ic
comport amentos</w>
cl ock</w>
chimpanz e
caminh ar</w>
boo ks,</w>
bar co</w>
atitu de</w>
all -
al tos</w>
al can
adv ent
acontec e,</w>
acion al,</w>
abil ities</w>
Wo men</w>
T anz
S her
P .</w>
Jo e</w>
I l
H on
H aw
F izemos</w>
Ap ós</w>
An g
Afeganist ão</w>
A li
10 .000</w>
últi pl
ôn ico</w>
í dos</w>
weap ons</w>
trans forma</w>
sus pec
sufici ente,</w>
sub mer
strugg le</w>
ste ps</w>
sec tion</w>
se es</w>
se d.</w>
rit u
resul t,</w>
refu ge
recor ded</w>
re action</w>
r ough</w>
pr estar</w>
pol ar</w>
planet s</w>
phenomen on</w>
ph an
permiti u</w>
pap el,</w>
or e.</w>
nuc lear
neighbor hood</w>
me do.</w>
me ."</w>
jog o.</w>
interne t.</w>
inim ig
hospit al,</w>
har der</w>
gre g
gr ati
fornec er</w>
fil ósof
fa ther,</w>
escur id
escol her
engen h
deep er</w>
crimin al</w>
cont ínu
comun it
coleg a</w>
co sm
cla im</w>
chi p</w>
cabeç as</w>
bot t
b ad.</w>
audi ência</w>
assist indo</w>
ando ?</w>
al read
ac hava</w>
a u</w>
X -
W ar
Viet n
V ale</w>
U. S
Sa ud
S am
S W:</w>
On e,</w>
O l
Mar te</w>
Hig gs</w>
Des ign</w>
Antar c
" R
órg ãos</w>
é dia</w>
wal ks</w>
w alls</w>
vide o.</w>
tir ada</w>
thre aten
thes e.</w>
sus pe
surr ounded</w>
s tico</w>
s semos</w>
re jec
re clam
r ang
prote in</w>
person agem</w>
pedi u</w>
ped indo</w>
par que</w>
par ent
p a</w>
orç amento</w>
organiz ar</w>
on e?</w>
on al</w>
od s.</w>
negr o</w>
mor tes</w>
meth od</w>
mat ter,</w>
map as</w>
maca cos</w>
ma ver
low .</w>
li ve.</w>
l ess,</w>
ke ys</w>
in ti
im pos
im per
il us
ig ual
ic ion
i am,</w>
head s</w>
fiel d,</w>
fat ores</w>
f é</w>
explor ação</w>
experi ência.</w>
engine er
efici ência</w>
e tern
dis covery</w>
dificul dade</w>
desenvolv emos</w>
deix e</w>
d ing,</w>
const antemente</w>
cl ick</w>
ca iu</w>
atten tion.</w>
assum ir</w>
ar tes</w>
ap .</w>
americ ana</w>
abil idade.</w>
T un
Sk y
Sci ence</w>
S ep
R ús
Pen s
P A</w>
Num ber</w>
L ong</w>
Har var
Ge o
á tico</w>
vo ices</w>
viol ent
tiv amente,</w>
th anks</w>
t i</w>
t ;
sus pen
surpris e</w>
su pr
strateg y</w>
sobre viver</w>
so lit
sem os,</w>
re mind</w>
re ag
quis ermos</w>
produz indo</w>
pot entially</w>
plant a</w>
negóci os,</w>
natur al,</w>
multi plic
mu seu</w>
movem ents</w>
mostr ado</w>
mis sion
men os.</w>
men ino</w>
mathema tics</w>
mar ,</w>
m al.</w>
le y,</w>
laboratóri o,</w>
l endo</w>
ir amente</w>
intern al</w>
increas ed</w>
inclus ive</w>
il led</w>
idi o
hist ori
hi de</w>
grá fic
f ish.</w>
especí fico</w>
encontr am</w>
econom y,</w>
du pl
dro ga</w>
divers os</w>
diagnos tic
célul as-
cuid ado</w>
continu am</w>
contin ente</w>
cont ando</w>
constr ain
ch ão.</w>
car ga</w>
appli ed</w>
am or
allow ing</w>
ach ,</w>
ac umul
a part</w>
U N
Sep tem
R ed
Ok ay?</w>
O :</w>
Mé xi
Man :</w>
Lin col
Li ber
In don
Ho mem
Fr anc
D :</w>
C a
Afghanist an</w>
3 ,
0 .
" E</w>
z u
wh ist
war m
wa i
vid o.</w>
va i.</w>
un fortunately,</w>
trac king</w>
tox ic</w>
ti ous</w>
th ri
ter ?</w>
swit ch</w>
super ar</w>
stre am</w>
st ate.</w>
sobreviv ência</w>
segur ança,</w>
resear ch.</w>
refle x
re venu
prac tical</w>
palavr as.</w>
p ounds</w>
on :</w>
mud aram</w>
mis s</w>
machin e,</w>
jog ando</w>
innov ation.</w>
in jec
ill s</w>
históri as.</w>
gu y.</w>
gl ing</w>
fund os</w>
fre e.</w>
fle w</w>
first .</w>
fac ial</w>
entre i</w>
engag ed</w>
enci es</w>
enc ed</w>
emis sões</w>
eix o</w>
e qual
dú z
dri ves</w>
doc tor
dis pos
detec t</w>
del ici
có dig
conce itos</w>
comérci o</w>
ce do</w>
car tão</w>
c enti
bel ong
ant s.</w>
an g</w>
a kes</w>
a costum
Willi am</w>
W all</w>
Per haps</w>
P aul
N G
J en
HIV .</w>
? ”</w>
" the</w>
ó l
ó i</w>
y ar
us er</w>
un usual</w>
trilh ões</w>
ti le</w>
terr a,</w>
tem os.</w>
tam ent
super ior</w>
super i
some what</w>
solar .</w>
solar ,</w>
set ting</w>
scen e</w>
ri de</w>
r are</w>
psycholog ical</w>
pr ag
possibil idades</w>
pl es,</w>
pe t</w>
pas t.</w>
mé dia,</w>
mortal ity</w>
metá fora</w>
mean ?</w>
manag ement</w>
m últipl
lin da</w>
k id,</w>
jun tas</w>
it y?</w>
it ação</w>
is to?</w>
im ens
health care</w>
fund ing</w>
fr á
fo tógraf
fil me.</w>
fic aria</w>
feliz ,</w>
fa i
extra ir</w>
expon enci
etc .,</w>
engine er</w>
em -se</w>
elem ento</w>
electron ic</w>
e o
desenh os</w>
dem os,</w>
d as.</w>
d a
curi ous</w>
cont ou</w>
cli ma
cli entes</w>
ch air
cam a</w>
atr as
ativ as,</w>
aplic ar</w>
ap ped</w>
an ce
affec ted</w>
ador :</w>
ad dr
Tr at
T im</w>
St ate</w>
S up
Re almente</w>
Obrig ado</w>
O f
M et
Ira q</w>
Hom o</w>
Entre tanto,</w>
1 20</w>
y ing.</w>
wor r
wh y,</w>
war d,</w>
w aves</w>
un like</w>
tre ating</w>
trans mit
traj et
tradi ção</w>
toc ando</w>
to pic
ter remo
ten to</w>
sud den</w>
st age.</w>
son hos</w>
sinto mas</w>
sab er,</w>
sa id.</w>
s ad
ren ew
relev ant</w>
quick ly,</w>
progr am.</w>
pon tu
pecu li
pe ace
p ia</w>
oper ate</w>
ne w,</w>
n arro
mã e.</w>
muse um</w>
modi fic
ma do</w>
lo t,</w>
kin d
jo y</w>
in felizmente,</w>
imagin ation</w>
homen s.</w>
hol es</w>
gu id
funcion a,</w>
fac ed</w>
f light</w>
está gi
estrel a</w>
en sa
en able</w>
ear s</w>
dro pped</w>
doz en</w>
dev ag
determin e</w>
deix amos</w>
d ê</w>
d ate</w>
conven tional</w>
comunic ar</w>
co re
cientí fico</w>
ci ências</w>
cheg aram</w>
che ap</w>
carr os,</w>
car ro
cap í
bur n</w>
bombar de
bi ol
ati n</w>
aspec t</w>
ancestr ais</w>
ag arr
addi tion</w>
ad voc
ad vers
acab aram</w>
TV .</w>
Stre et</w>
Pr inc
Nel son</w>
N essa</w>
K h
J ack
H os
50 %</w>
' "</w>
" Isso</w>
” ,</w>
will ,</w>
we igh
vis itar</w>
vil é
un it</w>
u :</w>
tri p</w>
tomor ro
thing ?</w>
tal ent
t es.</w>
sur gir
spiri t</w>
som br
soci ais.</w>
sha ped</w>
seman a.</w>
sab emos,</w>
re quer</w>
proc esses</w>
plac a</w>
pin tura</w>
palestr as</w>
o tic</w>
nerv ous</w>
movem ent.</w>
micros co
mer .</w>
mar ried</w>
manh ã.</w>
le ve</w>
le :</w>
l er,</w>
l ados</w>
iz a</w>
iv a,</w>
it i</w>
irm ã</w>
inst inc
inh er
inh am</w>
in o.</w>
ill .</w>
idad e?</w>
i tem</w>
hack ers</w>
h ac
gra u</w>
govern ment.</w>
go ?</w>
gen om
fundament ally</w>
fun n
for th</w>
fi ve-
feel ings</w>
far á</w>
f éri
f olha</w>
exten são</w>
espec tro</w>
escre vendo</w>
entrev ist
encontr aram</w>
dynam ic</w>
do is.</w>
diag r
cor respond
convers ando</w>
consum ption</w>
con fu
circ le</w>
charac ters</w>
ch a
caus ing</w>
c ans
bura cos</w>
br us
b or</w>
ati r
anim al,</w>
al one,</w>
ag ens,</w>
affor d
T ri
Ste war
Some thing</w>
Qu ais</w>
Ph .
P it
Nob ody</w>
Ne ander
Musli m</w>
C ub
Be fore</w>
Amaz on</w>
A h
" V
í fi
vas os</w>
valu able</w>
transi ção</w>
tr au
torn a-se</w>
telef on
tele visão</w>
t ly,</w>
spec tac
semelh ante</w>
sec tor</w>
releas ed</w>
qui et
públi co,</w>
pus hing</w>
proteí nas</w>
process ing</w>
prin ting</w>
pri vilé
poss ível
pol y
parad ox
pag es</w>
ound s.</w>
op ção</w>
olog ist</w>
metap hor
mean s,</w>
lóg ica</w>
lev ado</w>
je ito.</w>
inv ention</w>
imagin ar,</w>
il legal</w>
hon or</w>
histór ico</w>
hap pi
guerr as</w>
g era</w>
fr ank
for tes</w>
fiz ermos</w>
ex port
estiv essem</w>
ess ing</w>
envol ve</w>
ent endo</w>
eas y.</w>
earth qu
dre s</w>
dispon i
discu tir</w>
dis se.</w>
din ner</w>
deta ils</w>
d ou</w>
credi t</w>
cr ut
control ,</w>
cont ém</w>
colabor ação</w>
col ors</w>
climá tica</w>
cli m
cad e
bi os
bi ológi
be ?</w>
atmos phere</w>
assum p
are a,</w>
and a.</w>
am or,</w>
am ed</w>
ale atóri
ajud ar.</w>
acontec endo,</w>
acc umul
ac ting</w>
T ar
S in
O s
Lon dres</w>
J ac
Holly wood</w>
GD P</w>
Fre e
Fey n
Dani el</w>
2 8</w>
. ]</w>
í du
web ,</w>
w ish
volt ou</w>
utiliz ando</w>
up per</w>
trabal hava</w>
to wn,</w>
ta k
spo t</w>
slow ly</w>
sal a.</w>
registr o</w>
re bel
r ound</w>
r ing</w>
qu eir
protec ted</w>
pro toc
per fur
occur red</w>
obvi ously,</w>
o il.</w>
o fici
mud amos</w>
mor te,</w>
monit or</w>
meas ure
influ ência</w>
independ ente</w>
incom od
in :</w>
grou p,</w>
frac ass
fe et.</w>
fe et,</w>
ex change</w>
evolu tion.</w>
especific amente</w>
err adic
em ente</w>
ei ther.</w>
drog en</w>
dis cre
dic e</w>
des pe
d aquelas</w>
convers as</w>
condi tion</w>
co as
cas t</w>
campa ig
ca i</w>
bl ack
behavi oral</w>
bat tle</w>
ban da</w>
b all
aw eso
ature ,</w>
arre pen
appropri ate</w>
apar entemente</w>
al ity.</w>
ag end
ad dic
aconte cer,</w>
Res ear
L ib
G ir
E mb
Ber k
Ab out</w>
A pesar</w>
9 /
2 5
" Y
í zes</w>
éri a,</w>
é lul
work ?</w>
vid ro</w>
univers idade</w>
trá s,</w>
tri z</w>
travel ing</w>
tra il
tr idimension
ti o</w>
tal .</w>
t at
sid es</w>
sens ores</w>
segu e</w>
se mi
se d,</w>
saud ável</w>
sacri fic
s as</w>
robo tic</w>
rid ícul
quis er
procur a</w>
po is,</w>
plat form</w>
plac as</w>
petróle o.</w>
perspec tive,</w>
pens ando,</w>
peg ando</w>
outr as.</w>
os ".</w>
or chestr
ol he</w>
number s.</w>
n estas</w>
men inos</w>
mem bran
mechan ical</w>
mas ter</w>
ma ps</w>
ly m
long .</w>
livr ar</w>
lig ação</w>
lif esty
li ge
la unch</w>
jog adores</w>
is land</w>
immun e</w>
hy drogen</w>
hous es</w>
hou v
gu ys,</w>
greenh ouse</w>
grav it
galáx ias</w>
fiel d.</w>
fi que</w>
fantásti co.</w>
explain ed</w>
exist s</w>
exercis e</w>
espaci al</w>
envel he
enten de</w>
eng ine</w>
en si
en i
en cer
en ?</w>
emo tions</w>
em bed
econom ias</w>
domíni o</w>
do ts</w>
do ença.</w>
desenvol vido</w>
demonstr ar</w>
de m.</w>
contr over
cond ut
coloc ado</w>
co :</w>
car o</w>
c ine</w>
biol umin
beauti ful.</w>
atenç ão,</w>
appreci ate</w>
am -me</w>
am -
al ."</w>
Worl d
T om
S ul,</w>
Qu ase</w>
E r
D V
3 3</w>
óbvi o</w>
war m</w>
vel has</w>
v á
u ary</w>
troc a</w>
temp est
techni ques</w>
surger y</w>
sur ge</w>
st ag
sol .</w>
sis ter</w>
sis tem
sin cer
sempre ,</w>
se i.</w>
rel ative</w>
recog ni
reas ons.</w>
re cover
qu ir
qu ia</w>
qu estr
pro m
planej amento</w>
per pe
par edes</w>
pac k</w>
op ções</w>
olh am</w>
oce ano,</w>
mundi al.</w>
mor ning.</w>
metr ia</w>
mess ages</w>
me at</w>
lin ked</w>
lead er</w>
is ."</w>
gi e</w>
fr ame</w>
f ita</w>
exp and
ex ército</w>
er n
er gu
equ ally</w>
entusias m
entr am</w>
entr ada</w>
deix am</w>
de clin
d ut
d ing.</w>
cór tex</w>
cont as,</w>
connec tions</w>
con fin
collec ted</w>
col um
chocol ate</w>
caus as</w>
cal or
bom be
bi a,</w>
ban cos</w>
back ground</w>
av ó
ativ amente</w>
at tan
ap s</w>
anc es,</w>
adolesc entes</w>
ad e
acab ado</w>
abr ang
ab re</w>
a ,"</w>
X ,</w>
Wh ite</w>
V ene
Qu êni
O u,</w>
L uc
Arth ur</w>
AID S.</w>
A B:</w>
" Yes,</w>
ê u
ç o
vo te</w>
vir ar</w>
ver tic
und o,</w>
téc ni
ty p
t ough
t ested</w>
sur vi
sur face,</w>
stay ed</w>
solu tion.</w>
shor t,</w>
sho o
sent indo</w>
sen sor</w>
sele ção</w>
school s,</w>
s ound.</w>
ri am</w>
pr ay
pergun tam
pen sado</w>
o de
nel e.</w>
negóci os.</w>
liv e,</w>
lab ,</w>
jardi m</w>
institu ição</w>
im prim
hon est</w>
hard ware</w>
gif t</w>
ge -
g er.</w>
forwar d,</w>
filh o,</w>
fa ith</w>
express ion</w>
es ca
enfrent ar</w>
e go</w>
dó lar</w>
dream s</w>
do ?"</w>
dist ante</w>
discipl in
de cor
d ada</w>
constru iu</w>
cober tura</w>
civiliz ação</w>
cad em
boar d,</w>
bat alha</w>
b y.</w>
audi ence,</w>
ator :</w>
arri ved</w>
anti gos</w>
amos tra</w>
al tas</w>
al ar
Wikipe dia</w>
W he
R ed</w>
H ans</w>
Fin almente,</w>
E .</w>
De tro
D ou
Come cei</w>
Bri an</w>
19 th</w>
1 .000</w>
. .</w>
ão ."</w>
year- ol
x ico</w>
wirel ess</w>
we ather</w>
vir ou</w>
transi tion</w>
to ile
ti di
three- dimensional</w>
thing :</w>
terr as</w>
surviv al</w>
su port
st ands</w>
sol ved</w>
ser emos</w>
ro ad
res ídu
res ource</w>
relógi o</w>
radi ação</w>
quê .</w>
quebr a-
proper ty</w>
proc edi
princi ple</w>
por tra
popul ation.</w>
play ers</w>
plate ia</w>
per hap
pa i.</w>
own ,</w>
os ?"</w>
or as</w>
op e</w>
o o
mús icas</w>
mínim o</w>
moviment o.</w>
m outh</w>
le tras</w>
lat est</w>
je to</w>
isso :</w>
intr ig
in t
id ên
gra b</w>
gr ate
gr ass
fu g
four -
for me</w>
fis h,</w>
fig ura</w>
fic ção</w>
fas t.</w>
f ar,</w>
f .</w>
est arão</w>
escr ita</w>
epidem ic</w>
envol ver</w>
ear ,</w>
dur o</w>
diz ia:</w>
destru ição</w>
d entes</w>
cr ac
ch ose</w>
cent s</w>
bo b
begin ning,</w>
b anc
ation ?</w>
at a,</w>
anti c</w>
anh a.</w>
an es
an :</w>
alis m</w>
ag enda</w>
ad qui
ad es.</w>
a xi
Un fortunately,</w>
Por ém,</w>
O ther</w>
Nor te.</w>
N ic
M ari
Institu to</w>
Est ado</w>
Bud d
Bu il
Be cause,</w>
Bas icamente,</w>
tradicion al</w>
tr ân
tom ada</w>
t ar,</w>
suc esso,</w>
struc k</w>
ste el</w>
sol ,</w>
sho ot</w>
sent ar</w>
s oul
recom pens
psico logia</w>
pron to</w>
pres os</w>
pos t
politici ans</w>
person agens</w>
pens ar.</w>
pens amentos</w>
ok ay.</w>
no tar</w>
neuros ci
n ações</w>
mund os</w>
mor tos</w>
mon tar</w>
molecul e</w>
me tri
magaz ine</w>
ma ci
le y.</w>
lanç ar</w>
iv a.</w>
issu e.</w>
imag em,</w>
hear t,</w>
gr it
gener ally</w>
g one.</w>
fund o,</w>
funcion ários</w>
fron teira</w>
found ation</w>
feliz es.</w>
fa ul
f alls</w>
explic ação</w>
esti mate</w>
est a.</w>
escur a</w>
ed or</w>
e ti
dol or
do g
di vis
desenvol veu</w>
den .</w>
cultur a,</w>
cul pe
convenc er</w>
conhe cimento.</w>
confi ar</w>
com bater</w>
cole tar</w>
co ast</w>
class es</w>
caminh o,</w>
bás ica</w>
bur ning</w>
boar d.</w>
behavi or,</w>
av ó</w>
at s.</w>
at ch</w>
amos tras</w>
aleg ria</w>
adicion ar</w>
acres cent
ac cept
aber tura</w>
Yor k
U. N.</w>
Th an
T inha</w>
Segun da</w>
Nor te,</w>
Mon ter
Mon tan
Jef f</w>
Gr and</w>
Chris ti
Brook ly
Ar t</w>
An y</w>
1 1,</w>
- lo
" My</w>
ôn im
êni o.</w>
wor d,</w>
wher ever</w>
wat ts</w>
vehic le</w>
un expected</w>
transforma ção</w>
trans late</w>
tonel adas</w>
toc a</w>
te atro</w>
t ack
st ate,</w>
signific ava</w>
segu inte
se t.</w>
s á
s agr
rev ela</w>
re conhecimento</w>
rapid ly</w>
r é
quanti dades</w>
process amento</w>
pres ented</w>
precis ávamos</w>
po esia</w>
po ema</w>
per demos</w>
pati ent
ou viu</w>
olh arem</w>
mus h
mus cle</w>
mon th,</w>
minu to</w>
m al,</w>
li b
le g</w>
issu es,</w>
instrument os</w>
im p
im or
ide z</w>
iPh one</w>
human as</w>
hour s.</w>
h in
gener ated</w>
garo tos</w>
g lu
fun ções</w>
fun d</w>
fre e,</w>
extraordin ário</w>
experi ência,</w>
escut ar</w>
es ,"</w>
enc ant
emo tion
educa tional</w>
eco system</w>
dram atic</w>
di eta</w>
dam age</w>
cír culo</w>
cu jo</w>
consumid ores</w>
conos co</w>
connec ting</w>
con ges
car a.</w>
camer as</w>
be d,</w>
bande ira</w>
aut ôno
attemp t</w>
anon ym
amb as</w>
am e,</w>
adul ts</w>
ab elh
a tribu
Uni ão</w>
Shak espe
Scot t</w>
P a
N ex
Mo z
Manh attan
M exi
J H:</w>
I .
H al
B et
B M
A us
A tu
200 5,</w>
"E i,</w>
" No</w>
vermel ho</w>
vac cine</w>
us ers</w>
tu ber
tri als</w>
trans formed</w>
tir ,</w>
through .</w>
the ater</w>
th en.</w>
ter ing</w>
tent ou</w>
te ma
tar get</w>
syn thes
succ ess.</w>
strate gi
sa í</w>
s ín
respe ito.</w>
repres ented</w>
reach ing</w>
ra p</w>
r atos</w>
qual ific
provid ed</w>
pres o</w>
por cent
polí tica.</w>
per de</w>
part ner</w>
organiz e</w>
org an</w>
of ten,</w>
o w
nu vem</w>
ne ed.</w>
mã os,</w>
mud am</w>
lí qu
liz ab
l indo</w>
invol ves</w>
inter esses</w>
ins ight</w>
ic e
i am.</w>
grow th.</w>
go es,</w>
fá ce
fun ded</w>
feed ing</w>
fazê-l o.</w>
et a.</w>
estú p
estran ha</w>
essenci al</w>
esquer do</w>
entre ten
em bal
diz er
dis s
direc tion.</w>
diab et
dest ac
depen d</w>
d am</w>
cresc em</w>
corpor ate</w>
cop y
control ling</w>
contr ário,</w>
continu ed</w>
consum er</w>
construí da</w>
clou d</w>
cli p</w>
certe za.</w>
ca pt
c le.</w>
br o,</w>
bag un
b olha</w>
az ul,</w>
awar eness</w>
att an</w>
ar ej
ar an
ar a</w>
apoi ar</w>
answ er,</w>
anh a,</w>
amb ul
altern ativa</w>
af eta</w>
ac ts</w>
R am
Pro jeto</w>
P esquis
M ary</w>
J ud
Ho ward</w>
Her e,</w>
D A</w>
CE O</w>
C op
AID S,</w>
zer o,</w>
wor d.</w>
w s,</w>
ver ão,</w>
ver ia</w>
us aram</w>
um s</w>
troc ar</w>
trans missão</w>
ten de</w>
tec idos</w>
sustent ável</w>
sug ar</w>
struc ture.</w>
streng th</w>
stre et,</w>
statis tics</w>
sof t</w>
sho p</w>
scientist s,</w>
sa d</w>
ru g
ro bus
ris ks</w>
regim e</w>
regi ons</w>
ra to</w>
pres ence</w>
pre ços</w>
pa tr
pa is.</w>
orgul ho</w>
oce an,</w>
num er
mo tion</w>
measur ing</w>
marri age</w>
mar k</w>
manufactur ing</w>
l or
l este</w>
joven s,</w>
inten si
inspir e</w>
inov ações</w>
ing les
infanti l</w>
ib le.</w>
i el
happin ess.</w>
han g</w>
gráfi cos</w>
gené tica</w>
gener ations</w>
fant ástico</w>
estr esse</w>
effec tively</w>
e- ma
dr ink</w>
desig ners,</w>
desc end
dentr o,</w>
demonstr a</w>
dea th.</w>
d ose</w>
contro le.</w>
conqu ist
combust íveis</w>
cho ice.</w>
cent ers</w>
car tas</w>
car ried</w>
bri ef
bo x.</w>
bat tery</w>
bat endo</w>
as c
aquil o.</w>
aer on
Sig nific
S har
Pod eria</w>
O ,</w>
Mu seu</w>
Manh attan</w>
L is
Ior que,</w>
I M
H ong</w>
Be ij
Ban co</w>
20 %</w>
- of-
ç ão?</w>
ân dia</w>
world ?</w>
w s.</w>
víde o.</w>
vir uses</w>
vig il
vide o,</w>
trein ar</w>
trans plant
tra -
tor y</w>
to que</w>
the at
te to</w>
te atr
te ."</w>
símbol o</w>
séri o</w>
sor te,</w>
so m.</w>
so il</w>
sk et
shar k</w>
seman as.</w>
resolu ção</w>
red or,</w>
re torn
re plac
re per
produc es</w>
popul ation,</w>
pobre za.</w>
play er</w>
pi ores</w>
pesso al,</w>
pergunt ou</w>
particip ate</w>
offer s</w>
obst ac
obs essed</w>
medic ine.</w>
man ch
mak ers</w>
loc ked</w>
lev amos</w>
leg ais</w>
le a
j ar
ir íamos</w>
inter fer
innov ative</w>
in noc
implic ações</w>
id osos</w>
hom es</w>
h its</w>
gu il
gu er
gl ori
g enti
ful l-
fri o</w>
fal ava</w>
ex pli
estrutur a,</w>
escal a,</w>
es go
err ado,</w>
er adic
engag ing</w>
en rol
en f
e go
divid ir</w>
dis play</w>
di vide</w>
cri ei</w>
consider ado</w>
conhec ida</w>
compu ters,</w>
compro m
comport ament
cl íni
chin eses</w>
carreg ar</w>
captur ar</w>
cam adas</w>
bá si
bud get</w>
bub ble</w>
ba g</w>
b ,</w>
au ,</w>
ator s,</w>
as ".</w>
ante cip
am ar</w>
airplan e</w>
ag ens.</w>
abil idade,</w>
Th anks</w>
T ive</w>
Se us</w>
SE T
Prov avelmente</w>
Po wer
K a
I ran
B el
2 9</w>
viv o,</w>
ver tical</w>
v inha</w>
v entil
v ap
tric k</w>
tri ang
ti ed</w>
thro wn</w>
thre e.</w>
tal ,</w>
t- hand</w>
t our</w>
su porte</w>
str ing</w>
sig ned</w>
sho w.</w>
seguinte :</w>
sab endo</w>
s outh</w>
ru a,</w>
ro ot</w>
rece pt
re in
qu im
proteí na</w>
pro me
possi ble
por to</w>
pon to.</w>
poe try</w>
pir â
photograph s</w>
pesso ais</w>
pesquis a.</w>
per s</w>
per missão</w>
per feito</w>
par .</w>
paper s</w>
oc asi
o z
narr ative</w>
n ut
mulher .</w>
mes a.</w>
meas ured</w>
maravilh oso.</w>
mai or
mad e.</w>
m ente
isso ?"</w>
ish ed,</w>
inh as,</w>
industr y.</w>
im possível.</w>
hospit ais</w>
har v
gr and</w>
gr am</w>
gostar íamos</w>
glam our
gam es.</w>
flo ating</w>
fiel ds</w>
fi re
far m</w>
f righ
exc lu
ex ato</w>
espetac ul
esper ança.</w>
emb arr
dire ita.</w>
dig a</w>
desenvolv endo</w>
descre ve</w>
des vi
cur va</w>
cri ada</w>
cr ença</w>
con du
computador es,</w>
coloc aram</w>
chu va</w>
ch os
ch eir
cach orr
c lif
blog s</w>
bat t
at s,</w>
at ores</w>
assim :</w>
ar ed</w>
anteri or
ando :</w>
analys is</w>
am a.</w>
ajud am</w>
ac tions</w>
U r
S ho
R ay</w>
Q a
N et
N atur
L atin</w>
Ken ne
Jap an</w>
Ior que</w>
Ang eles</w>
201 1,</w>
,00 0
Á sia</w>
wi red</w>
web site.</w>
w est</w>
viol ence.</w>
vide os</w>
trá s.</w>
trad u
tr as
tin ta</w>
tem po
t ém</w>
sum mar
simil ar
scre en.</w>
scen ari
sa em</w>
s ar
ric h
rece bem</w>
ra w</w>
r out
qu an
pud er</w>
provid es</w>
protec ting</w>
pro p
pobr es,</w>
per to,</w>
par king</w>
orig ami</w>
on a</w>
no vel</w>
má gi
mud ar.</w>
morr endo</w>
metap hor</w>
matemá tica,</w>
k ing
jant ar</w>
insec ts</w>
infec ted</w>
igu almente</w>
hur t</w>
houv esse</w>
gover no.</w>
gentle men,</w>
friend ,</w>
fal se</w>
fail ure</w>
evolu cion
ensin ou</w>
emocion al</w>
emis sions</w>
elec tro
ed :</w>
e vil</w>
dis so?</w>
di á
dev ice.</w>
depen ding</w>
dea th,</w>
de pos
cultur a.</w>
cr âni
cost as</w>
con dicion
compar ado</w>
col ôni
childr en's</w>
be ing,</w>
bal anç
ate ly.</w>
at le
assun tos</w>
apren de</w>
al de
al a</w>
ajud a.</w>
acad ê
W ho
Se ja</w>
Sar ah</w>
S ir</w>
S and
Poder íamos</w>
P elo</w>
O .
J us
Hen ry</w>
Est ávamos</w>
Es p
Bus h</w>
As soci
6 0,</w>
- based</w>
ângul o</w>
ári as.</w>
á v
will .</w>
we apon
vac ina</w>
uc in
ti dos</w>
tel a.</w>
symp to
sozinh o.</w>
sourc es</w>
sor ris
sig ns</w>
sever e</w>
se at</w>
resourc es.</w>
recom men
rec ess
re tro
re de.</w>
re crut
raz ão,</w>
qu ando,</w>
pres um
preocup ado</w>
precis avam</w>
pos t</w>
poor est</w>
ph y
pen so,</w>
pedi do</w>
ped i</w>
nitr og
nel a.</w>
mo ve.</w>
mil has</w>
mes a,</w>
mar ine</w>
main tain</w>
mad e,</w>
lu a</w>
lon ge
liter almente,</w>
laboratóri o.</w>
it as,</w>
ish ed.</w>
industr y,</w>
in j
important es.</w>
i est</w>
hor mon
históri as,</w>
hi per
h ad.</w>
gu em</w>
g old</w>
fí g
for ever.</w>
faz erem</w>
fas t,</w>
faix a</w>
f esta</w>
f ed</w>
f alling</w>
experiment al</w>
expan são</w>
exp and</w>
est ar.</w>
equip amentos</w>
envel hec
embr o</w>
embr ace</w>
ele tro
ed ."</w>
ear .</w>
don 't.</w>
diz iam</w>
di arr
depress ão</w>
deix aram</w>
death s</w>
d aquilo</w>
cresc i</w>
consci ente</w>
con templ
com o
co ca
clim b</w>
classi c</w>
character is
challeng ing</w>
ch av
celul ar,</w>
ce gos</w>
can al</w>
cab elo</w>
bri gh
b and</w>
aspec ts</w>
algorith ms</w>
algorit mos</w>
acontec em</w>
ab ly,</w>
Y et</w>
Per gun
P lat
P ass
Leon ardo</w>
L E
L .
H im
G od.</w>
B ot
A cadem
50 .000</w>
20 00</w>
' s.</w>
" Wo
" Okay,</w>
" It</w>
óp ter
ó lic
y a</w>
work ing.</w>
wher eas</w>
v or
un idades</w>
tir ando</w>
tion :</w>
ten .</w>
t ava</w>
sub sid
stil l,</w>
s lo
result ado,</w>
res is
rema ins</w>
registr os</w>
recuper ar</w>
rece ive</w>
re vis
pô r</w>
py ram
psi qui
pri mat
preven ir</w>
precis e</w>
pover ty.</w>
pleas ure</w>
pl enty</w>
ph on
pers ist
os t</w>
open- source</w>
offer ed</w>
od s,</w>
oce ans</w>
num ber,</w>
mó veis</w>
médi co,</w>
mé todos</w>
mud ança.</w>
minu te.</w>
m ented</w>
liqu id</w>
lin ks</w>
lige iramente</w>
li p
le i
l unch</w>
ju ven
jornal ista</w>
is se</w>
inten ção</w>
im os.</w>
ic al,</w>
ho pe.</w>
hi p</w>
h as,</w>
gr ain</w>
gen es,</w>
físi cos</w>
fotografi as</w>
fla g</w>
fl ash
f ô
explos ão</w>
experiment .</w>
ev apor
esti verem</w>
ess enti
es tim
es clar
equip ment</w>
en ig
empur r
embr ac
em power
e i.</w>
discus sion</w>
disas ter</w>
dis g
depend endo</w>
demonstr ação</w>
de mais,</w>
const ant</w>
conect ado</w>
computador es.</w>
comput ing</w>
com mod
ch ão,</w>
bot tle</w>
bloc ks</w>
bil ity</w>
appear s</w>
an ia</w>
a e</w>
Vej a,</w>
Su éci
P ap
O lym
Jer us
G ates</w>
Earth 's</w>
E l</w>
C ur
C ity,</w>
B ru
A my</w>
200 6,</w>
20 ,000</w>
2 .000</w>
0 ,
" Well</w>
" But</w>
õ es?</w>
í bli
víde o,</w>
vid r
vi c</w>
u e</w>
tre es,</w>
tic k
them e</w>
th al</w>
ta x</w>
t adas</w>
sug g
substitu ir</w>
so- called</w>
sin té
ser vir</w>
segur ança.</w>
segu ida,</w>
s wi
rom ân
ran dom
quar ter</w>
qu eira</w>
psy chi
prá ticas</w>
pod er,</w>
po em</w>
petróle o,</w>
pergunt as.</w>
pass ag
paral y
p ne
oxy gen
oun ds,</w>
ou ve</w>
organ ismo</w>
olog y,</w>
now ?</w>
new s,</w>
medi a.</w>
lit tle,</w>
like ?</w>
lad ies</w>
j ug
it ation</w>
inv enç
ing ?"</w>
in jur
impression ante</w>
import ante
idé ia.</w>
ic k,</w>
i u.</w>
i o
hav eria</w>
har m
hand s,</w>
half -
h áb
fá cil,</w>
fur nit
fav or.</w>
facil it
f f</w>
exist ence</w>
exist .</w>
ev alu
estratégi as</w>
dú vida</w>
do es,</w>
descri bes</w>
des loc
de pó
de prim
cu ja</w>
crí tico</w>
cris is.</w>
cris is,</w>
cri atura</w>
cr us
con ve
compani es,</w>
cla im
chin ês</w>
cer ta.</w>
bor n.</w>
be ira</w>
bale ias</w>
b ens</w>
b .</w>
ar ru
aquil o,</w>
al ed</w>
ag reg
adol es
Y es.</w>
T em
Sa ú
Lo go</w>
Le w
L a</w>
Jos hu
Homem :</w>
Europ a.</w>
Edu ca
E le
D ia</w>
C amer
4 8</w>
3 0.</w>
" a</w>
ç am</w>
zer o-
youn ger</w>
we a
v a.</w>
underst and,</w>
un believ
ultr avi
ty -
tub o</w>
ti u</w>
thi op
theor y,</w>
tend s</w>
sur face.</w>
strong er</w>
softw are.</w>
sofri mento</w>
sk ul
situ ation.</w>
sho pping</w>
sho es</w>
shi ps</w>
senhor es,</w>
sch ol
sam ple</w>
sab er
re fe
re ef
quest ão,</w>
prov ed</w>
pr ic
particip ação</w>
p av
os "</w>
oper ação</w>
on i
on e:</w>
nigh t
net work.</w>
n ’t</w>
mús culos</w>
mov em</w>
mo ther.</w>
mecan ismos</w>
materi als,</w>
mal es</w>
main ly</w>
língu as</w>
innov ation,</w>
inici al</w>
in ci
iment os</w>
imag ens,</w>
imag em.</w>
ho pe,</w>
hipó tes
grou p.</w>
g ay
fundament ais</w>
func tional</w>
forest s</w>
fil m,</w>
felic idade.</w>
explor ing</w>
est arem</w>
envolv imento</w>
ent ered</w>
em ents</w>
elétr ica</w>
el o.</w>
el ess</w>
differ ently.</w>
deta il</w>
der iv
democrac y.</w>
contin ent</w>
cont ag
conhe cimento,</w>
collec ting</w>
co tidi
ci a,</w>
chemic als</w>
cerebr ais</w>
cad eir
c le,</w>
bi tr
b elo</w>
ath le
ar am-se</w>
aprove itar</w>
al idade,</w>
ag h
acontece u,</w>
acas o</w>
a- Col
a wa
Ne ver</w>
M ol
M T:</w>
M K:</w>
Londr es,</w>
K am
Jon athan</w>
Fin ally,</w>
E thiop
De par
D r
Começ amos</w>
Braz il</w>
Ar m
A sh
19 0
" That's</w>
ôni bus
í ti
y ,"</w>
vir al</w>
vil arej
vide og
victim s</w>
tí tulo</w>
tr ês.</w>
ti verem</w>
though ts</w>
thing 's</w>
ter :</w>
tar y</w>
tar de.</w>
suf fer</w>
stup id</w>
struc ture,</w>
st ock</w>
spr ing</w>
sh ut</w>
sex ual
saté lite</w>
ru im,</w>
respos ta,</w>
respon de
relacion ado</w>
re par
re mos</w>
re m
públi cos</w>
proper ties</w>
pro of</w>
preocup ação</w>
phys ically</w>
pati ents,</w>
par t.</w>
out side,</w>
or questr
ok ay</w>
ne ither</w>
natur ais</w>
máqu ina.</w>
mun do?</w>
mod ul
medic amentos</w>
mak er</w>
livr os.</w>
li ver</w>
li d</w>
larg a</w>
k is
k a</w>
issu es.</w>
inten cion
ins ide.</w>
inh os.</w>
important es,</w>
hun gr
human s.</w>
guar ante
gl ass
gir l,</w>
gig ant
fundament almente</w>
fr au
form as.</w>
fo to,</w>
flu or
f estiv
eventu almente</w>
estu pr
econom ics</w>
décad as,</w>
dur a</w>
do gs</w>
disse min
direc tor</w>
des perd
cum pr
cul os.</w>
craf t</w>
corrup ção</w>
const ante</w>
consel ho</w>
cons en
compassi on
cell .</w>
ce u
car s.</w>
bus cando</w>
boc a</w>
bo w
benef ício</w>
bat eria</w>
b am
attach ed</w>
ar bitr
apren deu</w>
al av
ab ul
U g
TED Tal
S anta</w>
R it
Pl ate
P lease</w>
Or ,</w>
Every one</w>
E lizab
Col oc
B il
Ar gent
2 :</w>
00 .</w>
ê-l a</w>
é ia</w>
ç ar</w>
ã os,</w>
á u
ye ah.</w>
y n</w>
y iel
y es.</w>
wonder ing</w>
vari ação</w>
v es,</w>
underst and.</w>
travel ed</w>
trans port</w>
tiv os,</w>
sup pli
su jeito</w>
sp lit</w>
sp aper</w>
segund os,</w>
school s.</w>
revolu tion.</w>
qu ais
pu demos</w>
pro pul
pre fer</w>
pass ing</w>
paci ente.</w>
narr ativa</w>
maravilh osas</w>
loc ais,</w>
lo mer
life -
lembr am</w>
la id</w>
jog o,</w>
inv ad
interac ting</w>
imag e,</w>
ho b
ho ?</w>
h amb
grup o,</w>
gro ws</w>
govern ament
g ang
foc using</w>
fl ores</w>
far emos</w>
f olh
f ishing</w>
estrutur a.</w>
esquer da.</w>
er ec
ent ão.</w>
engenhe iro</w>
end as</w>
en de</w>
employe es</w>
embed ded</w>
em phas
edifíci os</w>
econom ia.</w>
e !</w>
dro ve</w>
dro me</w>
dram á
dou tor
dic t
dedic ated</w>
de m,</w>
danç ar
cuid ados</w>
cor re</w>
cont as</w>
compon ents</w>
compaix ão,</w>
colap so</w>
co ro
clos ely</w>
cle ver</w>
ci a.</w>
chem istry</w>
cardí a
carbon o,</w>
car ds</w>
caminh os</w>
calcul ar</w>
bro w
b est
audi ence.</w>
ask ed,</w>
as tre
anivers ário</w>
anal o
am ong
am e.</w>
actu ally.</w>
aconte cido</w>
acid ente</w>
[ "
W a
S el
R evolução</w>
Prof essor</w>
Par is</w>
P roc
Narr ator:</w>
N um</w>
N aquele</w>
Mundi al,</w>
M ay</w>
L arry</w>
L G:</w>
K os
J ord
H am
D ub
C ru
ó li
we ak
want ing</w>
w ire</w>
vo ice,</w>
vis ão,</w>
un k</w>
u plo
tuber cul
tre e,</w>
transmi tir</w>
traf fic
tradicion ais</w>
tool s,</w>
this ."</w>
tex t
technologi es,</w>
sing ing</w>
sho w,</w>
sent ados</w>
s es.</w>
restaur ante</w>
ress on
rar amente</w>
r ation
quatr o,</w>
quan tit
promo ver</w>
pos icion
ph arma
perhap s,</w>
pergunt ar,</w>
ológ ico</w>
olh em</w>
occas ion
o este</w>
ner s.</w>
necess ária</w>
nav io</w>
natur ally</w>
motiv os</w>
mos :</w>
mis teri
mis sed</w>
mam mo
mak e.</w>
ma ta</w>
ligh t
le l</w>
ir as.</w>
inv ite</w>
implic ations</w>
im possible.</w>
i u,</w>
i amos</w>
hand le</w>
h es
gran des,</w>
gig ante</w>
garraf a</w>
g ers</w>
g er,</w>
g ender</w>
ful ly,</w>
fro z
faz ,</w>
far mac
f at</w>
extr act</w>
ev en
es mag
envol vido</w>
ensin ando</w>
ens es</w>
em in
dr ones</w>
distribu ted</w>
dist o,</w>
di le
determin ar</w>
decl ínio</w>
compr im
compar ar</w>
com and
collabor ation</w>
co us
co log
ch eiro</w>
ch e</w>
caracter ística</w>
c í
bo tão</w>
be t</w>
bab y,</w>
b y-
b low</w>
astron aut
aplic ativo</w>
aparec er</w>
al inh
agu e</w>
agor a?</w>
adver tis
ad vis
ad mit</w>
abstr act</w>
ab y
a part
Septem ber</w>
R el
M ill
M E
Lem bre
K o
Jun e</w>
Gul f</w>
G ore</w>
G G:</w>
F ul
E L
Depar tamento</w>
B ay</w>
90 %</w>
80 %</w>
7 0,</w>
5 5</w>
200 3,</w>
&amp ;</w>
ís tico</w>
í p
was hing</w>
w all.</w>
veter in
ver de.</w>
ver de,</w>
trá fe
trans por
tr act</w>
ter 's</w>
tel esco
st ation</w>
situ ations</w>
sh r
separ ar</w>
segu ida</w>
secon ds,</w>
s que
roc ket</w>
res on
re war
re cru
precis ely</w>
pover ty,</w>
plant s,</w>
perd endo</w>
percep tion</w>
pe ak</w>
particip antes</w>
pa troc
p ure</w>
over all</w>
opportun ity.</w>
op posed</w>
ol dest</w>
of fici
ob sole
new spaper</w>
necess árias</w>
natur almente</w>
n ations</w>
morre m</w>
mon key</w>
mil ag
mer s,</w>
long e,</w>
loc ation</w>
legi ti
larg e,</w>
knowled ge.</w>
invent ou</w>
inter view</w>
imprens a</w>
imag e.</w>
h r
h ando</w>
h -
grav idade</w>
gr ab
gen s</w>
fronteir as</w>
forc e.</w>
for tal
for mos</w>
fli p</w>
fir o</w>
fig ures</w>
fat o.</w>
fac tor</w>
f an</w>
excel ente</w>
every body's</w>
este j
ess a.</w>
espalh ar</w>
equili br
e ,"</w>
drug s,</w>
dr one</w>
down load</w>
domin ant</w>
domes tic</w>
divid ed</w>
diver tido</w>
dimen sions</w>
develop ment.</w>
dens idade</w>
deliver ed</w>
de us</w>
de fe
cultiv ar</w>
cres ce</w>
complic ado</w>
compar ação</w>
coloc am</w>
co de,</w>
cit ação</w>
ch ain</w>
car v
c ell,</w>
br aços</w>
bo x,</w>
biolog y,</w>
beh in
base ados</w>
auti sm
are as,</w>
anál is
ann y</w>
an est
amig a</w>
am or.</w>
ag gress
ad es,</w>
acab am</w>
U.S .,</w>
Twit ter,</w>
Tim e</w>
Seg undo,</w>
Per ce
Par kin
Nenh um</w>
N uma</w>
N ações</w>
Mc Donal
MR I</w>
London ,</w>
Lincol n</w>
Jap ão</w>
J ack</w>
Islam ic</w>
G or
F a
Emb ora</w>
Ale manh
A mb
4 2</w>
0 s</w>
" Mas</w>
éri os</w>
wri ter</w>
wat ch
vulner able</w>
voc abul
viol ence,</w>
vid o,</w>
ven da</w>
univer si
u ma,</w>
trabalh ado</w>
tom ou</w>
ti rei</w>
só .</w>
sympto ms</w>
sym metr
sup pose</w>
su j
sol o.</w>
smo o
situ ation,</w>
sin cron
si ,</w>
segur a</w>
rod as</w>
res tri
red ores</w>
recur so</w>
rece ita</w>
quis esse</w>
quer endo</w>
quais quer</w>
quadr ado</w>
prov avelmente,</w>
progr am,</w>
praz o.</w>
pr ate
pow ers</w>
pou ca</w>
po de,</w>
pion e
pergun te
per na</w>
per dido</w>
pequen o,</w>
pens armos</w>
net work,</w>
mu til
mod os</w>
micro f
matemá tica.</w>
lim its</w>
li kes</w>
lad y</w>
l :</w>
jud ge</w>
it :</w>
inter ações</w>
ingl ês.</w>
infin ite</w>
ine qual
ignor e</w>
ic ópter
ic k.</w>
ho t
gri d</w>
ge e
fin e.</w>
fin ds</w>
fech ar</w>
fascin ated</w>
fa ke</w>
extraordin ária</w>
exempl os.</w>
evolu tion,</w>
es a.</w>
entend i</w>
econom istas</w>
econom ia,</w>
dis cur
dic tion
dest ino</w>
desper di
desenvol veram</w>
de vol
d ava</w>
correc t</w>
contain s</w>
conect ados</w>
começ o,</w>
comer cial</w>
cog um
cobri r</w>
ciment os</w>
centav os</w>
careful ly</w>
caix as</w>
bl ac
big .</w>
bi e</w>
behavi ors</w>
bar ato</w>
avanç ar</w>
avali ar</w>
automa tically</w>
at ô
arquite tos</w>
ar rec
ar em,</w>
apar elhos</w>
an os?</w>
among st</w>
al ucin
a fe
Su n</w>
S mit
Ph il
P lan
N úmer
N as</w>
Muse um</w>
L ar
Ha iti</w>
Ger man</w>
Fo mos</w>
F ive</w>
C entro</w>
B e</w>
A T
4 .
200 4,</w>
áto mos</w>
war ming</w>
w all,</w>
vo ando</w>
vill age,</w>
vel y.</w>
trans ist
tou ched</w>
there fore,</w>
telef ones</w>
star ted,</w>
st ati
situ ação.</w>
silênci o</w>
sent ence</w>
sele cion
segund os.</w>
sav ings</w>
ro ad.</w>
revolu cion
revel ar</w>
reve al</w>
represent ação</w>
re z
r ati
propor ção</w>
pens amos,</w>
pare ciam</w>
parce iros</w>
par ts.</w>
over come</w>
or n
open ,</w>
of ficial</w>
od es</w>
nor thern</w>
nor th</w>
ni e</w>
n est</w>
médi cos,</w>
mo on</w>
mer ec
melhor es.</w>
med ula</w>
liter atura</w>
k ?</w>
inteir o,</w>
ind ica</w>
imagin o</w>
human idade,</w>
ho wever,</w>
ho mel
histor ical</w>
hard ly</w>
grow th,</w>
gon na</w>
gen u
garo tas</w>
gan da</w>
gam es,</w>
fós for
funcion ando</w>
frigh ten
fiz esse</w>
fix ed</w>
fil e</w>
explan ation</w>
exam ples.</w>
estabelec er</w>
especi al.</w>
es fera</w>
entrepreneur s</w>
encontr ado</w>
en th
en di
empreende dor
emo tion</w>
el o,</w>
dobr ar</w>
do or,</w>
diz ia,</w>
diz emos</w>
diagnó stico</w>
di alo
destru ir</w>
dem os.</w>
compu ters.</w>
com modi
cent er,</w>
cap tured</w>
bus y</w>
bi ke</w>
autor idade</w>
atten tion,</w>
amb igu
am os?</w>
al vo</w>
al og
al ista</w>
agre ed</w>
ag ências</w>
ag lomer
ad ding</w>
abri u</w>
V emos</w>
Sh ir
Se e,</w>
S A</w>
R M:</w>
Mex ico</w>
M ob
L og
Jes us</w>
G ra
Europe .</w>
E M:</w>
D ef
Ch ur
C our
Abr ah
1 2,</w>
' 60
" Yeah,</w>
í nci
ã os.</w>
y al</w>
wor se,</w>
virtu ally</w>
ven ho</w>
valu e.</w>
usu ário</w>
to w
ti vermos</w>
terr eno</w>
tend ências</w>
tel h
syn thetic</w>
sti g
sk ill</w>
sh ake</w>
segu em</w>
se en.</w>
se a.</w>
sal to</w>
rig or
ri m
rever se</w>
recic l
real -
re ward</w>
re ported</w>
radi o
r aça</w>
pros titu
projet ado</w>
pro xim
pre vent
posi ção.</w>
polu ição</w>
ple .</w>
pl ut
parti lh
p ix
p ica</w>
os amente,</w>
org âni
od d</w>
nuven s</w>
no tes</w>
nen hum
nam e,</w>
n in
movi es</w>
morr eram</w>
min or
min e,</w>
materi als.</w>
ma tes</w>
m as.</w>
lear ning.</w>
lands ca
it ado</w>
inten ded</w>
inspir ation</w>
inov ação.</w>
ingl ês,</w>
increas es</w>
hy dr
hear t
galax ies</w>
fís ica,</w>
frag ment
faz em,</w>
ex cell
esper ava</w>
es cond
er up
entr amos</w>
enor me.</w>
emo ção</w>
emer gency</w>
em it
elimin ar</w>
el der
effici ency</w>
ear n</w>
e to</w>
drin king</w>
doub t</w>
dis postos</w>
dis cut
diri a,</w>
digit al.</w>
digit al,</w>
dev ia</w>
des aceler
decl ine</w>
de ad.</w>
cor n</w>
cor ação.</w>
compon ent</w>
começ ar,</w>
col ógi
co al</w>
celebr ate</w>
cas o.</w>
carto on</w>
car vão</w>
cach or
bre ath</w>
bon ito</w>
bomb as</w>
blo cos</w>
bibliotec a</w>
begin ning.</w>
bact éria</w>
b age</w>
atu ais</w>
ar en
anima ção</w>
amig o,</w>
am i,</w>
aliment ação</w>
al co
administr ação</w>
ac t.</w>
aber ta</w>
ab les</w>
[ un
Vide o:</w>
U C
Se e</w>
R ick</w>
R en
Presid ente</w>
Ocid ent
ON G
Nic hol
Mi ke</w>
Me dia</w>
M an</w>
L ike,</w>
Ira que</w>
HIV ,</w>
For tun
En contr
Congr esso</w>
Al so,</w>
10 %</w>
" Vamos</w>
" Look,</w>
ó dio</w>
í fico</w>
árv ores,</w>
wo od,</w>
vo z.</w>
vit am
vis ão.</w>
ven en
transform ou</w>
transc end
tradi tion</w>
tr end</w>
tir ou</w>
ti vid
teri or
swim ming</w>
surve ill
su re,</w>
spectr um</w>
slid e.</w>
sensor y</w>
sand w
s can</w>
ro ots</w>
recor ding</w>
receb emos</w>
raci oc
protec tion</w>
prin ted</w>
possi velmente</w>
po or,</w>
pen h
pe des
os e
org ân
open s</w>
on de,</w>
mun ici
mostr aram</w>
mon keys</w>
mencion ar</w>
mal u
m ito</w>
let ting</w>
interac tive</w>
inici ar</w>
im pedir</w>
identi cal</w>
i ble</w>
horri ble</w>
home m.</w>
h as.</w>
gu ys.</w>
go ods</w>
ger al.</w>
gal axi
ga ther</w>
fun ,</w>
fu ma
fac tors</w>
fac es.</w>
f ar.</w>
express ar</w>
ex posed</w>
estóri as</w>
especial ista</w>
esp inh
es can
em pir
em bor
ele gan
ecos sistema</w>
dist ant</w>
dis cor
dinossaur os</w>
di e,</w>
des astre
democrac y,</w>
có pia</w>
células- tronco</w>
convers ations</w>
contrib ute</w>
conser tar</w>
compr a</w>
compon ente</w>
compl ain
com o:</w>
cole ção</w>
ch ol
cat á
cap a</w>
bre ad</w>
br av
be e</w>
autis m</w>
assun to.</w>
are as.</w>
aprendiz agem</w>
appear ed</w>
any way.</w>
anti gas</w>
anteri or</w>
al fab
acredit o,</w>
academ ic</w>
a i.</w>
Web .</w>
U ganda</w>
U ,</w>
Smit h</w>
S ul.</w>
S S:</w>
Plate ia:</w>
P lay
P E
Ox ford</w>
O K</w>
Mé dio</w>
Goog le.</w>
Fel iz
Christ mas</w>
Chr is,</w>
A .
3 7</w>
200 8</w>
- year</w>
ári as,</w>
vol tamos</w>
vie ws</w>
vermelh a</w>
ver ific
under lying</w>
torn ado</w>
to ps</w>
tiv os.</w>
tir amos</w>
sym bol</w>
stud y,</w>
str o
so lid</w>
sk y.</w>
sil k</w>
sen ior</w>
se ?</w>
s per
ro de
ro ad,</w>
ris co.</w>
rel atório</w>
recor ds</w>
re trat
re pair</w>
ra io</w>
qui do</w>
q ü
profess or,</w>
pro gre
privac idade</w>
posi ção,</w>
pon ho</w>
poli tics,</w>
pobr es.</w>
pic king</w>
pergunt ando</w>
patroc in
paci entes.</w>
paci entes,</w>
p t</w>
ov os</w>
out side.</w>
o posto</w>
number s,</w>
nel e,</w>
n e,</w>
n 't,</w>
moder na</w>
mirr or</w>
memóri as</w>
medid as</w>
mal uc
mach os</w>
ma tr
le vei</w>
k ers</w>
is e
invent or</w>
intr igu
interest s</w>
inspir ação</w>
ins ide,</w>
imag es,</w>
if ,</w>
i bi
human .</w>
hour .</w>
h ire</w>
h em
gost ariam</w>
gen oc
fr aud
fic ation</w>
expan dir</w>
ess ência</w>
esqu ecer</w>
esforç os</w>
es tivemos</w>
es ".</w>
er o
ence ?</w>
encar ar</w>
empres a,</w>
ec k
domin ante</w>
di óxido</w>
destro y</w>
den se</w>
defini tivamente</w>
def esa</w>
decad es,</w>
d 's</w>
cre atur
construc t</w>
conhe cia</w>
con jun
com bat
col or,</w>
co er
class room</w>
chang es.</w>
ch ro
carbon o.</w>
cam ente,</w>
bás ico</w>
az e
avi ões</w>
avanç os</w>
atur a.</w>
atravess ar</w>
arr anj
aparec em</w>
ag on
accur ate</w>
abil iz
[un clear
Z im
V ic
Than ks.</w>
Su pre
Signific a</w>
R .</w>
P ic
Olh em</w>
N ature
K el
I’ m</w>
H an
G et</w>
For d</w>
Face book.</w>
F ed
E ti
Califór nia,</w>
C ho
Bl ack
A trav
8 5</w>
8 0,</w>
í con
ã -
Á r
world wide</w>
wo man.</w>
vo ice.</w>
vi as</w>
top o.</w>
ti p</w>
test .</w>
tent aram</w>
techni que</w>
te ams</w>
swi m</w>
subjec ts</w>
sub indo</w>
spir itual</w>
sol o,</w>
sk i
sin te
sam ples</w>
saib am</w>
s pl
s ist
restaur ant</w>
rest ante</w>
recurs os.</w>
pus hed</w>
propos ta</w>
profission al</w>
profess ora</w>
produc t.</w>
privilé gio</w>
primeir o.</w>
pres entes</w>
posi tion.</w>
pol lin
pol in
po p
performan ce.</w>
p és
or a.</w>
ma d</w>
lab .</w>
knowled ge,</w>
job s,</w>
iz o
it oc
ion s.</w>
inspir ing</w>
initi al</w>
ing ;</w>
infer ior</w>
in formed</w>
iment o.</w>
imag es.</w>
hous ing</w>
hor se</w>
her s</w>
hear t.</w>
h é
gu e,</w>
gos tar</w>
gi a.</w>
gan g</w>
for d.</w>
filh o.</w>
fal ha</w>
especi al,</w>
escur o</w>
es a,</w>
en cr
div or
disponi bil
dire ção.</w>
dire ito,</w>
diagnos ed</w>
destru í
democrac ia.</w>
de col
cul os,</w>
cri me.</w>
cr yst
cr ack</w>
contro le,</w>
conos co.</w>
conec ta</w>
condi tion
complex a</w>
compaix ão.</w>
brilh antes</w>
br as
botto m,</w>
ben e
be ing.</w>
be d.</w>
atr air</w>
arr ang
aplic ação</w>
ap p</w>
an atom
ambi ental</w>
amaz ing,</w>
alien ígen
al imento</w>
ais ?</w>
adi ante</w>
Z e
We 'd</w>
Tex as</w>
T ub
T ony</w>
T el
S yl
S und
S pr
S or
S cr
R ab
Paci fic</w>
No thing</w>
Jerus al
Ir ã</w>
Ir an</w>
Inter national</w>
I N
H ub
Fund ação</w>
F ar
Cer ca</w>
Cam brid
Califor nia,</w>
3 6</w>
" Meu</w>
úni cos</w>
ór b
í amos,</w>
ên ia</w>
ç as</w>
ân ia</w>
áre a.</w>
we ir
visu al.</w>
viol ência,</w>
vac u
tubar ões</w>
tru th.</w>
trop ical</w>
tre m</w>
traj ec
to wn.</w>
ti po
th res
tecn ológi
tar em</w>
t ú
t ada</w>
su it</w>
staf f</w>
spo ken</w>
small po
sim o</w>
sec und
robo t.</w>
ris ing</w>
resul ts.</w>
rel ation</w>
radi ation</w>
quis erem</w>
pul ling</w>
pro per</w>
pres as</w>
praz o,</w>
pr êmi
pol io</w>
perfeit o.</w>
pequen a,</w>
pedr as</w>
pati ents.</w>
paral lel</w>
pan or
outr as,</w>
out come</w>
o il,</w>
núcle o</w>
no vel
movem ent,</w>
memor ies</w>
mechan ism</w>
may be,</w>
matemá tico</w>
magn itude</w>
ma p,</w>
m ês,</w>
lun g</w>
liv re,</w>
lig a</w>
levant a</w>
leng th</w>
kil o
jo vem,</w>
inten se</w>
instant ane
inst all
inclu i</w>
in tac
imag ens.</w>
i a?</w>
hospit als</w>
heró is</w>
heli cop
hel icópter
happen ?</w>
gráfi co.</w>
gr os
gam a</w>
frank ly,</w>
fo to.</w>
flo or.</w>
fin ance</w>
fi re.</w>
fe z.</w>
fam osa</w>
f oun
exi bi
every where,</w>
every one.</w>
eti qu
eth ical</w>
est res</w>
est ariam</w>
est aremos</w>
esper anç
escol as,</w>
esc av
es to</w>
es qui
es e,</w>
ente ."</w>
e- mail</w>
diag ram
di ed.</w>
demonstr ate</w>
de al
de ?</w>
crí tica</w>
corr entes</w>
cor agem</w>
coo king</w>
contex t,</w>
compr imento</w>
comport amento.</w>
combin ed</w>
com ing.</w>
com endo</w>
coloc á-lo</w>
col ônia</w>
co zinha</w>
clín ica</w>
but ,</w>
bi a.</w>
be et
barul ho</w>
b ad,</w>
aver age,</w>
avanç o</w>
av ô</w>
arti gos</w>
architec ts</w>
applic ations</w>
aplic ações</w>
ancest ors</w>
americ anos,</w>
ado ."</w>
ad amente,</w>
activ ity.</w>
acredit ava</w>
acontecer am</w>
acontece u?</w>
ac y.</w>
ac he
aber to,</w>
a im
a es
a a
Wi thin</w>
Vir gin
Un ido,</w>
Th ir
T ent
Se bas
S t.</w>
P T
Númer o</w>
L ei</w>
Jan e</w>
Engl ish,</w>
En tre</w>
D ever
D al
C el
Bras il</w>
B or
B C</w>
Améric a.</w>
4 ,000</w>
útil .</w>
wor se.</w>
wo od.</w>
windo ws</w>
wh ales</w>
vol can
vermelh o,</w>
un certain
tub os</w>
tribut e</w>
tr ack
tou ch
through ,</w>
thre w</w>
therap y</w>
theor y.</w>
tel a,</w>
ta g</w>
t ari
sty le</w>
stre et.</w>
spre ading</w>
solu ção.</w>
sofre m</w>
shar ks</w>
sen horas</w>
segur ando</w>
sch iz
satis f
sab er.</w>
s its</w>
s ight</w>
ro of
remin ded</w>
recogn ized</w>
re construir</w>
rai os</w>
ra ízes</w>
quar ta</w>
public ado</w>
pre cip
pou s
potenci almente</w>
poc k
plan ted</w>
pl es
pi cos</w>
pi ada</w>
ph ras
pes c
particul ar.</w>
p ess
offic e,</w>
oc cu
occu r</w>
observ a</w>
ob tém</w>
ningu ém.</w>
ne .</w>
nasc eu</w>
mil itar</w>
ment al.</w>
mecân ica</w>
mean s.</w>
m es,</w>
lá gri
loo k.</w>
liv res</w>
lin ear</w>
le opar
le ."</w>
journe y.</w>
izo fr
internacion ais</w>
inter val
instr ument</w>
institu tion</w>
ine quality</w>
im os,</w>
h air
gu e.</w>
gener os
gen ce</w>
g in</w>
g ente.</w>
forç ar</w>
fol has</w>
fo ie</w>
fl at</w>
fif th</w>
f t</w>
exag er
escon der</w>
eletr od
e ".</w>
dí g
diver se</w>
des confort
de al.</w>
célul as,</w>
curr ícul
cur ricul
cross -
constr ói</w>
consci ência.</w>
concre te</w>
comple tamente.</w>
começ o.</w>
civiliz ation</w>
challeng e.</w>
bus c
bro k
bre ath
biolumin esc
bi qu
bar ely</w>
b old</w>
at erra</w>
arquite to</w>
aprove it
an tem
an gh
an as.</w>
an as,</w>
agr í
ag ente</w>
adv ice</w>
ad os?</w>
achiev ed</w>
Uni do</w>
Stan ford</w>
S pace</w>
R is
P ur
P ,</w>
It áli
Isra el,</w>
Gr and
Eas tern</w>
E ram</w>
D ay</w>
D AR
Con tr
Con tin
Con stru
Coc a-Col
Chic ago,</w>
9 0,</w>
3 50</w>
í amos.</w>
wil d
wer e.</w>
we ak</w>
vi m</w>
veri ficar</w>
vac inas</w>
vac in
u ma.</w>
tran quil
trabalh ar.</w>
to pic</w>
te iros</w>
tap e</w>
só ,</w>
sym me
sup pl
sug ges
stud ents.</w>
stop .</w>
sem entes</w>
ro ta</w>
res sed</w>
regi on,</w>
refer ência</w>
rar ely</w>
prol i
profund as</w>
profess ores,</w>
priv ado</w>
pres ente.</w>
prepar ar</w>
pre mi
possibil ities</w>
pobre za,</w>
po leg
pingu ins</w>
ph os
per igo</w>
pel e,</w>
pedr a</w>
pedi mos</w>
partic le</w>
other 's</w>
of ia</w>
obje tivos</w>
ne ed,</w>
nas cimento</w>
n aqueles</w>
motor es</w>
morr er.</w>
mo ed
man ual</w>
lí quido</w>
loo p</w>
leas t,</w>
laboratóri os</w>
l ing,</w>
ke y,</w>
k :</w>
jus t,</w>
jog ador</w>
jaz z</w>
ir rig
inste ad,</w>
individu ais</w>
inclu des</w>
in al</w>
impul sion
import am</w>
il usão</w>
ig ualdade</w>
ide ias,</w>
ic h
hy dro
ho p</w>
h anging</w>
graç a.</w>
go als</w>
gi a,</w>
fís ica.</w>
faz enda</w>
f an
ey e,</w>
expl od
exc ess
et ap
est ão,</w>
es cas
entre vista</w>
enf atiz
empreende dores</w>
emer ge</w>
effec t.</w>
econom izar</w>
dorm ir</w>
des ma
der re
depar tamento</w>
d or,</w>
cé u.</w>
cul o.</w>
cor tex</w>
conce b
combin ar</w>
cois a?</w>
clas s,</w>
clar a</w>
circu ito</w>
cho ice,</w>
ch er</w>
centr aliz
cart ões</w>
carr os.</w>
cam pe
c un
bri ef</w>
b les</w>
aç as</w>
avali ação</w>
auth or</w>
arm os,</w>
ar tes
ar my</w>
americ ano.</w>
al to.</w>
ag er</w>
ach ou</w>
ach .</w>
aber to.</w>
Wh it
Quant as</w>
Pr êmio</w>
P in
P atr
K u
K or
J our
Ior que.</w>
Ingl aterra</w>
Hou se</w>
Hig h</w>
H arry</w>
Ex pl
D an
Congr ess</w>
Con go</w>
Co penh
C ul
C r
Al i</w>
A ug
3 .000</w>
3 %</w>
19 3
" What's</w>
ôni os</w>
óri as</w>
won der,</w>
wh ale</w>
us ."</w>
traz endo</w>
trans formar
trans fer</w>
thro wing</w>
terr or</w>
te am.</w>
t ér
surve y</w>
superfíci e.</w>
spin al</w>
son 's</w>
sha pe.</w>
sear ching</w>
sam e,</w>
s ider
reun ir</w>
respe ito,</w>
re vers
r ate,</w>
qu ot
prote ins</w>
progr ess.</w>
profund idade</w>
prob ability</w>
precis ão</w>
person 's</w>
perman ent</w>
pe did
parce iro</w>
pal co.</w>
pal co,</w>
paci ente,</w>
or b
or ?</w>
oph ren
o xi
n ari
nari z</w>
mul tin
moviment o,</w>
mosqu ito</w>
mon ey
medi um</w>
ma p.</w>
livr os,</w>
lin es,</w>
limp ar</w>
le tra</w>
l ament
kill er</w>
iv os</w>
it ;</w>
inst in
inh os,</w>
inh as.</w>
inh ab
infer i
incredi ble.</w>
in ício,</w>
in adequ
hos t</w>
gl ad</w>
ganh am</w>
galax y</w>
fáce is</w>
fund ação</w>
fr a
for te.</w>
for te,</w>
fi ve,</w>
fe ature</w>
faz ermos</w>
famili ar,</w>
est ações</w>
esqu izofr
esqu elet
escrav id
enxerg ar</w>
environment s</w>
en sure</w>
ele ição</w>
el ess,</w>
efici entes</w>
effec t,</w>
e z
dramatic ally</w>
doz ens</w>
don o</w>
dist o.</w>
dis tric
difficul t.</w>
descobri r
den omin
célul as.</w>
cro codi
cor redor</w>
contro vers
consegu irmos</w>
confid ence</w>
concer n</w>
compre ens
cin ema</w>
cent er.</w>
build ings,</w>
bo om
bas e.</w>
bas e,</w>
aç ão:</w>
az ul.</w>
automa ticamente</w>
au .</w>
atmosp here.</w>
as ed</w>
ar o
ar ".</w>
al to,</w>
al ma</w>
agricul tores</w>
ad er
ac tion,</w>
ab us
X I
Vo z:</w>
T ínhamos</w>
Sovi et</w>
S now
Palest in
Ou tros</w>
Ou tras</w>
Oc to
O L
N air
Mand ela</w>
K ur
J A:</w>
Is n't</w>
Inde ed,</w>
Hu man</w>
HIV /
Gol fo</w>
Francis co,</w>
Fi quei</w>
F ic
Du as</w>
Dere k</w>
D P:</w>
C uri
B ir
B ack</w>
A os</w>
20 10.</w>
1 :</w>
1 5,</w>
"Sab e,</w>
♪ .</w>
é s,</w>
vi ven
ve ."</w>
uti l
un known</w>
un ir</w>
u sei</w>
ture ?</w>
tru que</w>
trat amentos</w>
transforma tion</w>
tra to</w>
torn ar-se</w>
tiv es</w>
ti tle</w>
that ."</w>
technologi es.</w>
te am
tam .</w>
sy l
sun ,</w>
sum mer,</w>
suggest ing</w>
sport s</w>
sor ry</w>
so pr
sl aver
siz e,</w>
sinte tiz
shoo ting</w>
sex o.</w>
serv ed</w>
segur o.</w>
see k</w>
se ed</w>
schiz ophren
scar ed</w>
s ell
roman ce</w>
represent ar</w>
re produz
re conc
re act</w>
rap az</w>
qui et</w>
públ ica.</w>
promo te</w>
pou p
pes t</w>
peg aram</w>
peg am</w>
pedi ram</w>
pati ent.</w>
pass eng
paradig ma</w>
par ci
on tem</w>
offic e.</w>
observ ação</w>
necess ários</w>
ne w.</w>
muit os,</w>
mountain s</w>
mor to</w>
mis sion,</w>
mil len
mei o-
medi a,</w>
man us
lo jas</w>
ligh ting</w>
liber al</w>
k ni
joven s.</w>
it ali
inter rom
ing en
individu al.</w>
in put</w>
in jet
impression ante.</w>
imagin ed</w>
ic e:</w>
ic al.</w>
head ed</w>
he ter
genoc í
gener aliz
gas tamos</w>
galá xi
fór mul
for me
fil m.</w>
feliz es,</w>
fe atures</w>
fac es,</w>
fa il</w>
estú dio</w>
estr adas</w>
est o
espir itu
escolh a.</w>
envol vidos</w>
en e</w>
elec tion</w>
el s.</w>
el ement</w>
dra wn</w>
doc tor,</w>
dist ância.</w>
dis put
dis h</w>
dis ap
deser t</w>
desastr e</w>
depress ion</w>
democr atiz
deix ei</w>
dar -lhes</w>
d ys
d aria</w>
cur ta</w>
control a</w>
conclus ion</w>
commer ci
cirurgi ão</w>
chimpanz és</w>
capitalis mo</w>
cant ar</w>
can ais</w>
camp o,</w>
c tu
c es</w>
beli e
be ar
b all,</w>
av or
autor idades</w>
as segurar</w>
announc ed</w>
analy ze</w>
al d</w>
afet ar</w>
Whe ther</w>
V íde
U .</w>
Twit ter.</w>
Tech nolog
Sim ples
S p
Lu ther</w>
Le e</w>
L im
L au
L ak
K en</w>
Jer se
J ill</w>
Ir ani
Indus trial</w>
H ell
Gol d
Engl ish.</w>
Engl and</w>
D or
D iz
D essa</w>
D all
Cri anças</w>
C ity.</w>
C at
C H
Afghanist an,</w>
Afeganist ão.</w>
7 2</w>
200 8.</w>
2 5,</w>
100 ,</w>
100 %</w>
"O lh
" OK,</w>
" Don't</w>
ó ric
ê-l as</w>
youn g,</w>
win ning</w>
wif e,</w>
whate ver.</w>
wh is
web site,</w>
viv os</w>
visi ted</w>
vehic les</w>
un g</w>
tur n.</w>
tr iste</w>
though t.</w>
test s</w>
te am,</w>
tas te</w>
tan gi
suger ir</w>
si metri
sex .</w>
senti r
secon d
sand uí
s ente
rul es.</w>
ru a.</w>
reflec t</w>
refer ence</w>
recy cl
recept or</w>
receb endo</w>
re ino</w>
r ational</w>
puzz le</w>
pursu e</w>
projec ts.</w>
produc ts.</w>
privac y</w>
prate le
popul ações</w>
po is
pilo to</w>
ph ase</w>
pesquis ador</w>
pe d,</w>
parec e.</w>
par es</w>
par am</w>
pain éis</w>
own ed</w>
op posi
o oh,</w>
o de</w>
neur o
mud ou.</w>
mud anças.</w>
mosqu itos</w>
me do,</w>
mamífer os</w>
m -se</w>
lear n.</w>
lead ers.</w>
le x
lap top
kin s</w>
iv es</w>
imagin ar.</w>
im men
il y.</w>
i ve.</w>
i -me</w>
hidrog ênio</w>
he y,</w>
grá fica</w>
gel o.</w>
ganh ando</w>
forc e,</w>
flow ers</w>
fing ers</w>
fil ling</w>
fem al
fe ar.</w>
father 's</w>
f im.</w>
extern al</w>
exteri or</w>
et a,</w>
espec t
esp ant
entend er.</w>
engen hos
econômi co.</w>
document os</w>
dirig indo</w>
dir ty</w>
dificul dades</w>
descobr indo</w>
des cart
d ings</w>
criativid ade.</w>
craz y.</w>
convers ation.</w>
controver si
control s</w>
comun s.</w>
compani es.</w>
comfor t</w>
com em</w>
col un
col her</w>
ci vic</w>
br o.</w>
bon es</w>
bol sa</w>
bloc o</w>
bem- estar</w>
b order</w>
aut or</w>
aul a.</w>
at tract</w>
ass ign
arrec ad
ar med</w>
aprend er.</w>
ampl a</w>
altitu de</w>
al ph
agricul ture</w>
adap t</w>
activi ties</w>
ac ul
Y oun
U m,</w>
R IS
Ocid ente</w>
N aquela</w>
Mar te.</w>
L abor
Gre en</w>
G il
Fi z</w>
F our</w>
F if
E lec
D á</w>
D ut
D oc
Cas a</w>
C ab
Benjam in</w>
Atrav és</w>
Angel es,</w>
18 ,</w>
' 9
' 80
órg ão</w>
éri a.</w>
work ing,</w>
wis e,</w>
win ter</w>
what so
wal k
volunt ários</w>
vizinh os</w>
vis ion,</w>
vi ver.</w>
vers ões</w>
vergon ha</w>
var í
un preced
u biqu
tí tul
tool s.</w>
th umb
te eth</w>
te e
t le.</w>
surpreend entes</w>
surger y.</w>
st ers</w>
spectac ular</w>
solu tions.</w>
skin .</w>
siz e.</w>
signific a,</w>
servi ç
segur os</w>
se da</w>
se a
scientist ,</w>
s inc
s es,</w>
ru ído</w>
ru as,</w>
righ t
resourc es,</w>
repe at</w>
reci pi
radic almente</w>
ra il
qu ec
psi cológ
privi leg
porcent agem</w>
person ally</w>
pergunt amos</w>
perd eram</w>
pens arem</w>
pen dur
paradig m</w>
par ent</w>
pag e.</w>
p ân
p az.</w>
organ ism</w>
olog y.</w>
objec t,</w>
notíci as.</w>
neuroci entist
ne ocor
nas cid
nam e.</w>
n ela</w>
mist ério</w>
minu te,</w>
min d-
mes ma.</w>
matemá ticos</w>
mam m
m- se,</w>
lo vely</w>
life ?</w>
li do</w>
k i
journe y,</w>
job s.</w>
j os</w>
ins ights</w>
inov ação,</w>
ing "</w>
inclu ir</w>
i tem
i ma
hour ,</w>
gi do</w>
funcion ou</w>
funcion am.</w>
fl our
farmac êu
far ão</w>
famili ariz
f ish
f ariam</w>
exper ti
es pre
es cape</w>
err ada.</w>
ep h</w>
embarr ass
em or
el s,</w>
econom ists</w>
earli er,</w>
drog as,</w>
discus sões</w>
deser to</w>
cré dito</w>
costuma vam</w>
con tain</w>
compassi on,</w>
commun ities,</w>
commit ted</w>
com promis
climá tica.</w>
cl oc
cin eas
chos en</w>
chi ps</w>
chap é
caminh ando</w>
ca ça</w>
bon it
bodi es.</w>
blu e
biz arr
be e
b in</w>
açú car</w>
autis mo</w>
atur a,</w>
atom s</w>
as cen
arti stic</w>
apar t.</w>
any more,</w>
anc ing</w>
an tem</w>
am put
aconte cia</w>
ac y,</w>
ac r
about ?</w>
a id.</w>
Wo man:</w>
W her
R og
Pri ze</w>
N eg
M ass
Jos eph</w>
Je wish</w>
E mil
D ave</w>
C u
Atl ân
Aqu ela</w>
Afeganist ão,</w>
A pol
A L
199 8,</w>
199 0,</w>
. com</w>
- se,</w>
' 70
úte is</w>
ó s,</w>
í mul
âne a</w>
vess els</w>
v al</w>
ut or</w>
under water</w>
transport ation</w>
toma m</w>
to y</w>
tiv as.</w>
tim o,</w>
te mas</w>
tan te,</w>
só lid
sustent abilidade</w>
sustain ability</w>
star ted.</w>
st am
sourc e,</w>
so m,</w>
so c
signific a?</w>
seri ously</w>
sensor s</w>
seguin te.</w>
se a,</w>
sab em.</w>
s ound,</w>
rí g
ri do</w>
pub li
psycholog y</w>
proto col
pron tos</w>
pos ter</w>
port as</w>
por ém</w>
poder osas</w>
pl ug
pl ate</w>
phil anthrop
pes tic
permi tir
per to.</w>
pe d.</w>
par ,</w>
p uni
p ilha</w>
oxy toc
on ce,</w>
o '
númer os.</w>
negóci o.</w>
my th
mis sion.</w>
minut o.</w>
min e.</w>
men ti
mat ou</w>
mar gin
mal aria</w>
ma u</w>
long e.</w>
l umin
k ic
k i</w>
ir as,</w>
ion s,</w>
interess antes.</w>
inter medi
instr uments</w>
human ity.</w>
h at
h !</w>
gu ide</w>
grou ps,</w>
gr ay</w>
gl as
gel o,</w>
fábr icas</w>
func tions</w>
fing er,</w>
fi ref
ferrament as,</w>
fe ira</w>
facul dade,</w>
f ounded</w>
f id
f all
experiment ,</w>
exis te.</w>
exerc ício</w>
evolu ção.</w>
esti veram</w>
esp elh
escrit or</w>
end endo</w>
enab led</w>
empres a.</w>
dobr o</w>
des car
dens ity</w>
danc ing</w>
d or.</w>
câ mar
crow d</w>
crimin osos</w>
cri ados</w>
cr enças</w>
cor das</w>
consider amos</w>
conduz ir</w>
conclu ir</w>
complex as</w>
col ony</w>
chro mos
child ho
cer ta,</w>
cal end
buc ks</w>
brinc ando</w>
brea thing</w>
bran cos</w>
bo y,</w>
biz ar
be ij
base adas</w>
barr a</w>
aument ando</w>
attac ks</w>
architec tural</w>
architec t</w>
ani a,</w>
al tura,</w>
al ity,</w>
al istas</w>
agricul tural</w>
acid entes</w>
ac u
ac amp
Uni on</w>
Trat a-se</w>
Tr ade</w>
Th ere
T en</w>
T ec
T K:</w>
Sus an</w>
Sahar an</w>
S r
S ol</w>
S ili
Phili p</w>
Ph. D.</w>
P ub
P eg
N an
Mar ia</w>
M B
J ones</w>
J C:</w>
I P
H ill
G ive</w>
F B
Ed ward</w>
Califór nia</w>
Bro ad
Bras il,</w>
B ran
Aqu ilo</w>
30 %</w>
. '"</w>
' 90
" o</w>
" Qual</w>
ún icas</w>
ô .</w>
z as</w>
y ing,</w>
worl ds</w>
war ds.</w>
w inter
visu al,</w>
vid a?</w>
viaj ando</w>
v inho</w>
v ing.</w>
use d.</w>
ul ar
torn arem</w>
top o,</w>
tom amos</w>
tod ay?</w>
tim o.</w>
ti das</w>
tent ado</w>
tel y.</w>
superfíci e,</w>
sun light</w>
sufici entes</w>
succ ess,</w>
su pos
stu dio</w>
sk y
sk ep
ser vid
sequ estr
selv agem</w>
secur e</w>
sco re</w>
saud áveis</w>
roman tic</w>
rest or
resol ve</w>
res tric
recuper ação</w>
reci f
ra iva</w>
qu ete</w>
proto type</w>
prote ín
propag anda</w>
privi lege</w>
pri maver
prejud ic
pr ato</w>
popul ar.</w>
polic ies</w>
pig e
phos ph
pharma ceu
ph er</w>
pergunt am</w>
pens avam</w>
pap el
pa in,</w>
p ile</w>
oxi de</w>
our s</w>
os pec
oportun idade.</w>
num ber.</w>
mos cas</w>
monitor ar</w>
mod a</w>
mix ed</w>
midd le-
ment al,</w>
lif t</w>
le thal</w>
land s,</w>
k n
jar din
j ell
j a.</w>
iz e.</w>
iz ados</w>
iv amente</w>
it ?"</w>
issu e,</w>
ir ?</w>
integr ated</w>
in und
in ed</w>
iment o,</w>
human as.</w>
grand mother</w>
gost ava</w>
gener al,</w>
ge ?</w>
friend ly</w>
fr ação</w>
fiz .</w>
filos ofia</w>
fil ms</w>
figur ing</w>
fic tion</w>
fic ará</w>
fi os</w>
fei ço
faz emos.</w>
famili es,</w>
f ério</w>
extre ma</w>
ex ib
enter pris
eng ol
empreg ados</w>
ele ições</w>
eg gs</w>
domé sti
diverti do.</w>
dire ito.</w>
differ ently</w>
di g</w>
develop ment,</w>
def ender</w>
decision s.</w>
de ver</w>
cur a.</w>
cul tures</w>
cro mos
corrup tion</w>
cor te</w>
consequ ência</w>
concep ts</w>
compassi on.</w>
comb ate</w>
cl on
ci o</w>
chick en</w>
cen sur
bro thers</w>
brea ks</w>
bat alh
b s.</w>
ay s,</w>
atóri os</w>
aston ishing</w>
as se,</w>
ar m,</w>
ad es
access ible</w>
a the
Wat ch</w>
Val ley</w>
U l
So mente</w>
S qu
Ro bo
Ro b</w>
Power Poin
Perce b
Par k</w>
P on
Obrig ado,</w>
Nor m
N ick</w>
Kos ov
Him al
Found ation</w>
F ellow</w>
En fim,</w>
E bola</w>
Co is
C her
C N
B íbli
B ank</w>
Australi a,</w>
Ar c
Aqu eles</w>
Afghanist an.</w>
30 ,000</w>
200 1,</w>
. 00
- o</w>
" You're</w>
" And</w>
Á rab
wor thy</w>
wor th
war ds,</w>
vê ,</w>
viv a</w>
vi agens</w>
ven ha</w>
tu a</w>
trib un
thing ."</w>
te u</w>
swe et</w>
sun .</w>
suf fici
star s,</w>
sig ni
sh ut
sen hor</w>
se is,</w>
se :</w>
respon der
reser va</w>
re turned</w>
re moved</w>
re minds</w>
re ações</w>
rap id</w>
rad ically</w>
qu es,</w>
pub er
pres cri
prepar e</w>
popul ação.</w>
plant s.</w>
plan s</w>
perce bem</w>
par ado</w>
own er
ou ter</w>
ou ?</w>
organ s</w>
oper a</w>
no -
morr er
microbi al</w>
mer ely</w>
man ha</w>
mac y</w>
leit ura</w>
le y:</w>
labor atory</w>
l y?</w>
l ing.</w>
kitch en</w>
k -
iz ado</w>
it able</w>
institu cion
incr íveis.</w>
incenti vos</w>
ib le,</w>
hard war
gas tam</w>
g ente,</w>
fu ri
form ando</w>
flo or,</w>
fil antrop
fil a</w>
fi br
fal si
f avel
exten d</w>
expect ativas</w>
est ímul
es fer
equip es</w>
enth usias
ent ering</w>
engraç ado</w>
empres as,</w>
e y,</w>
dú vida,</w>
distúr bios</w>
digit ais</w>
diagr ama</w>
determin ed</w>
des cer</w>
del eg
cul o,</w>
cri ativo</w>
creativ ity.</w>
cover ing</w>
cour age</w>
cost .</w>
consum ers</w>
consul t
conserv ation</w>
com edi
col d,</w>
ci ,</w>
ch es.</w>
ch es,</w>
care ful</w>
cam e,</w>
c ave</w>
c at</w>
bol s
bi o-
base ball</w>
b ate
auti st
anti cip
an 's</w>
americ ano,</w>
ajud a,</w>
agrad ável</w>
ach o.</w>
acess ível</w>
accep ted</w>
acad êmi
a com
W as</w>
U S</w>
Th ings</w>
T P
Simples mente</w>
R on
R od
Projec t</w>
P rob
P ou
Nor u
Nenh uma</w>
N am
Mic hig
Ke ith</w>
Jour n
Fun cion
F ebr
E speci
E d</w>
Con sel
Califor nia.</w>
Bru ce</w>
Bas ically,</w>
B la
Al ice</w>
Afric ans</w>
A K:</w>
100 .000</w>
1 30</w>
0 s.</w>
,00 0.</w>
" Vocês</w>
íssim o</w>
ên is</w>
ân dia,</w>
you ?"</w>
y el
work ed.</w>
wee ks.</w>
was h</w>
wa y?</w>
w ine</w>
vis ion.</w>
vis cer
viol ência.</w>
ve ja,</w>
ut en
un likely</w>
um -
tran stor
tr aç
terr ível.</w>
tack le</w>
ta p</w>
sustent ável.</w>
sus tentar</w>
surge on</w>
sur f
sup ported</w>
strug gling</w>
ster eo
spon tane
sor ri
solu tion,</w>
se t,</w>
ros tos</w>
revolu tion,</w>
result ados.</w>
respon se.</w>
recom pensa</w>
recom end
r acion
pul s
pro ve
pris ão,</w>
piec e,</w>
perspec tive.</w>
perce ber
per ,</w>
pattern .</w>
part es.</w>
par a,</w>
pain .</w>
oun ce</w>
op s</w>
oc as
objec ts,</w>
ob serve</w>
nucle ar,</w>
nacion al.</w>
n ariz
myster y</w>
mor al.</w>
mon th.</w>
mo eda</w>
metr opol
me ta</w>
mar i
long as</w>
lo gic</w>
liv re
liv ing.</w>
lin es.</w>
lig ado</w>
libr ary</w>
lav ar</w>
ju ventu
journ alist</w>
j ul
invest ing</w>
interpret ação</w>
im por
im mer
human ,</w>
grou ps.</w>
gr aça</w>
gigant es
g li
g as.</w>
form as,</w>
fol ding</w>
financi amento</w>
fi ed.</w>
fi ed,</w>
faz er
f ought</w>
extre mo</w>
explain ing</w>
exhibi tion</w>
evol ve</w>
eventu ally,</w>
estranh o.</w>
estr ess
esqu ele
espos a,</w>
es que
else 's</w>
dri ver</w>
do t</w>
discus s</w>
di n</w>
des ire
deix á-los</w>
de partment</w>
culp a</w>
cor rig
cor ais</w>
conver t</w>
consum p
conflic ts</w>
condi tions.</w>
comp elling</w>
começ ar.</w>
com um
collabor ative</w>
col ater
cientist as,</w>
cho que</w>
ch ut
cer im
calcul ate</w>
bom b</w>
bem- suced
ba ir
ator s.</w>
at ?</w>
as as</w>
as a</w>
as ?"</w>
approach ,</w>
aper feiço
ang er</w>
ando- os</w>
an no
ain 't</w>
af ast
ad m
aco us
ach aram</w>
acess ar</w>
Wi th
Soci al</w>
Seg ur
S .
Resear ch</w>
Por tu
P equ
O lhe</w>
Nex t</w>
M ,</w>
L ag
K ing
Isl am</w>
Inglaterr a,</w>
I B
H ir
Feyn man</w>
F az</w>
Carol ina</w>
Car ne
C ro
C any
Alexand er</w>
A sia,</w>
A dor
9 00</w>
4 ,
200 5</w>
1 %</w>
" J
" Is</w>
ól ica</w>
ó culos</w>
é tica,</w>
world wid
wonder ed</w>
w ir
verb al</w>
use d,</w>
tu be</w>
trabalh aram</w>
tr y.</w>
torn am-se</w>
tor s.</w>
tinh amos</w>
thing s:</w>
the ore
sub terr
su rely</w>
strategi es</w>
sou thern</w>
son g,</w>
sol ic
so be</w>
sleep .</w>
shor t
setem bro</w>
sej amos</w>
secur ity,</w>
saf e.</w>
ru ins.</w>
reve als</w>
rest ore</w>
relev ante</w>
relacion adas</w>
reduc ing</w>
re tirar</w>
públ ica,</w>
pun ish
process ar</w>
pres a</w>
precis amente</w>
pr ize</w>
poder osos</w>
pess im
perfeit a</w>
pequen o.</w>
pens aram</w>
padr ão.</w>
oper ation</w>
o es</w>
no me
ne ve</w>
mú sicos</w>
má s</w>
movi e.</w>
mov e,</w>
mist ake</w>
min as</w>
microscópi o</w>
mic as,</w>
mesmo ?</w>
ment os,</w>
men tir
memor y,</w>
mass a,</w>
mal ária</w>
mak e,</w>
loc ais.</w>
lar .</w>
lan ded</w>
l ing
ir ani
inv ested</w>
inspir ado</w>
ingredi entes</w>
in felizmente</w>
im er
ic amente.</w>
hun ger</w>
horr ível</w>
high ,</w>
he ight</w>
happin ess,</w>
grup o.</w>
grand father</w>
galáx ia</w>
fus ion</w>
fru it</w>
frequ ency</w>
frame work</w>
formig a</w>
faz emos,</w>
existi a</w>
excit ing.</w>
ex ame</w>
est s</w>
escap ar</w>
es i
enab les</w>
el ed</w>
effor ts</w>
ed ores</w>
doenç as.</w>
doenç a,</w>
dimen são</w>
di ,</w>
destro yed</w>
de do,</w>
danger ous.</w>
dang er</w>
d a-
cír culos</w>
cr ash</w>
copy right</w>
cons iste</w>
connec ts</w>
com posição</w>
colleg e,</w>
cole ta</w>
co de.</w>
circu itos</w>
circu it</w>
ch ance.</w>
certi fic
cer e
ce gu
bro wn</w>
bor n,</w>
blo od
bio divers
bi as</w>
bas ta</w>
b ia</w>
ax is</w>
avail able.</w>
author ity</w>
au to</w>
atu aliz
ating e</w>
arg uments</w>
addi tional</w>
activ ity,</w>
acontecer ia</w>
a w</w>
W right</w>
W it
Stewar t</w>
S pan
S on
P op
Mar s.</w>
L yn
Is land</w>
Ger man
D anny</w>
D .
Cap it
C D</w>
Austr alia</w>
Ar du
Ale x</w>
Alber t</w>
3 D.</w>
200 7</w>
" Wh
" Bom,</w>
" As</w>
ênci a?</w>
ão ...</w>
work er</w>
wid ely</w>
wa it,</w>
vin te</w>
v ist
us es,</w>
ur s
tris te
thir ds</w>
tech nic
te ar</w>
sécul o,</w>
surveill ance</w>
sud den,</w>
su je
son gs</w>
solu cion
so ber
sleep ,</w>
sh rim
sen hora</w>
scre en,</w>
sab emos.</w>
ru as.</w>
ro ads</w>
ri os</w>
ri a,</w>
reuni ões</w>
resídu os</w>
resolu tion</w>
religi on,</w>
relacion ados</w>
regul ament
regi ão.</w>
refle tir</w>
reduc ed</w>
reas ons,</w>
re mix
re build</w>
raz ões.</w>
raf t</w>
protó tipo</w>
prof ound
pro posed</w>
prim arily</w>
pre ma
pr essa</w>
power ful,</w>
pol len</w>
pin tar</w>
phy si
permit indo</w>
pel e.</w>
pe er</w>
particip ants</w>
pa tri
ot a,</w>
or gas
ocas ion
o ...</w>
nucle ar.</w>
nor mais</w>
nex t.</w>
mí dia.</w>
médi co.</w>
motiv ação</w>
mag nific
mag ical</w>
lucr o</w>
liv re.</w>
lid ando</w>
lev á-los</w>
lanç amos</w>
langu ages</w>
jog a</w>
jan elas</w>
j ol
it ens</w>
is s
inter rog
inspir ar</w>
inc ên
in es,</w>
in au
import a.</w>
ig h</w>
id i</w>
i ted</w>
hou ver</w>
histor ic</w>
high .</w>
h á
h itting</w>
graph ics</w>
gr ave</w>
fund o.</w>
fras es</w>
forma tion</w>
form s.</w>
foot prin
flow er</w>
fl y.</w>
favor ito</w>
fav elas</w>
fal s
fal has</w>
fal ec
fal ando.</w>
eç am</w>
ext ent</w>
exc esso</w>
examin ar</w>
estu fa</w>
esquele to</w>
er os
entreg ar</w>
end ang
en os</w>
eas y,</w>
dos es</w>
dor min
dinosaur s</w>
di gi
di et</w>
di amon
desafi o.</w>
dem and
decad e,</w>
cân cer
cres cimento.</w>
cr aw
communic ations</w>
comm and
co w</w>
clas s.</w>
ch á</w>
caval o</w>
car ri
capit al,</w>
capac idades</w>
can op
cam p</w>
c ú
brin que
bor ing</w>
ber g,</w>
be have</w>
ban ks</w>
b o</w>
azu is</w>
aument ou</w>
as t,</w>
as "</w>
ang le</w>
am ate
alun os,</w>
algu ém.</w>
ag greg
afet am</w>
admi tir</w>
accid ent.</w>
With out</w>
Wat son</w>
Vene zu
Su as</w>
Saú de</w>
S tr
Re member</w>
R om
P at
Mat t</w>
Mar gar
L í
Joshu a</w>
Jef fer
I A</w>
Gr ã-
Gab by</w>
Es cola</w>
E. U.
Dur ing</w>
C rai
C ari
Blu e</w>
B ret
Austráli a,</w>
Al an</w>
A v
A ir</w>
A cab
3 1</w>
200 0.</w>
" Que</w>
" Let's</w>
ín dice</w>
ân dia.</w>
á tica</w>
á cid
who 've</w>
você ."</w>
vo o</w>
vir us.</w>
vill ages</w>
verd es</w>
valu e,</w>
ut ter
tu s</w>
tsun ami</w>
trib os</w>
trans miss
tor es,</w>
ti vely,</w>
tex ,</w>
telef one,</w>
tan que</w>
t atu
star t,</w>
st ate
serv ing</w>
see king</w>
se en,</w>
sap atos</w>
sab e?</w>
s y</w>
ris co,</w>
reti re
resson ância</w>
rec entes</w>
re tin
quis i
quant a</w>
pé s.</w>
projec ts,</w>
preserv ar</w>
pre to</w>
plant ar</w>
persu as
person alidade</w>
pe go</w>
par e</w>
pain ted</w>
ot s.</w>
ose vel
op tion</w>
on -l
ol í
nerv oso</w>
mur der
mer cad
men 's</w>
medic ine,</w>
mar cas</w>
mai ores.</w>
loc alização</w>
lig ações</w>
life time</w>
leg ais.</w>
la w.</w>
jum ped</w>
journ al
it es.</w>
is são</w>
is ra
is ms</w>
intelligen ce,</w>
insur ance</w>
in úmer
impac ts</w>
imagin e.</w>
i red</w>
human -
her self</w>
hemis fério</w>
gran di
gol den</w>
glam our</w>
gene tic
gather ing</w>
g end
fun g
froz en</w>
forne ce</w>
for est.</w>
fo tos.</w>
fo go.</w>
flow s</w>
fis i
fed er
fe ar
fail ure.</w>
ey e.</w>
exten ded</w>
expon ential</w>
exis ted</w>
estud amos</w>
est ão.</w>
especí fica</w>
enç a,</w>
end i</w>
en as,</w>
emp ilh
eletric idade.</w>
eletric idade,</w>
elec ted</w>
drog as.</w>
do ing?</w>
diverti da</w>
diab etes</w>
di ante,</w>
desperdi ç
de forest
d ito,</w>
d ani
cor es,</w>
continu es</w>
continu amos</w>
consum e</w>
construc ted</w>
consider o</w>
complex os</w>
compartilh amento</w>
com emor
colôni as</w>
cl es.</w>
chur ch</w>
chap ter</w>
challeng e,</w>
caver n
cas ar</w>
car idade</w>
capí tulo</w>
c all
bás icas</w>
bu re
brain s.</w>
br on
bicicle ta</w>
b est,</w>
az z
ation :</w>
approach .</w>
affec ts</w>
ad el
abraç ar</w>
a un
a ks</w>
Tal ib
T ell</w>
T ay
S equ
Rus sian</w>
Ro osevel
Qu atro</w>
P u
Nor thern</w>
Mc C
M ud
John son</w>
Jap ão,</w>
J as
I I,</w>
Ger many,</w>
F O
Dig o,</w>
De pois,</w>
De partment</w>
De an</w>
Copenh ag
Cin co</w>
Brun o</w>
Bro wn</w>
B lo
B a
Améric a,</w>
6 ,000</w>
20 -
2 %</w>
" When</w>
" Estou</w>
ú bl
ó graf
é tica.</w>
whe el</w>
web .</w>
war s</w>
vê-l o</w>
vo z,</w>
viven ci
vie wed</w>
vi a,</w>
ven ,</w>
vari ation</w>
v es.</w>
trajet ória</w>
thos e.</w>
th or
terror ismo</w>
teor ias</w>
te en</w>
subst anti
som bra</w>
sobrevi ver.</w>
she 'd</w>
sha pe,</w>
sh ine</w>
sens ível</w>
sens íveis</w>
segu imos</w>
s ound
rus h</w>
reje it
ref ere</w>
re abil
raz ão.</w>
r ent</w>
qu est</w>
put ni
pul so</w>
pud eram</w>
pris ão.</w>
preench er</w>
pre visão</w>
posi tion,</w>
pon do</w>
pollu tion</w>
pol ariz
poin ting</w>
po eta</w>
plant as,</w>
planej ar</w>
plan .</w>
pi or
pesso as?</w>
pes co
people ?</w>
part ners</w>
p é,</w>
p ista</w>
our o.</w>
orient ação</w>
opini ão,</w>
objec ts.</w>
o it
o fic
númer os,</w>
nos e</w>
need le</w>
narro w</w>
mud ança,</w>
mu tu
mist akes</w>
ministr o</w>
min ing</w>
milh ões.</w>
mergul h
medic ina.</w>
mar ch
mant endo</w>
mac aco</w>
ma tern
ma tely</w>
m ig
lu cin
lim it</w>
lig ados</w>
lear ning,</w>
l ida</w>
jud ici
iz e,</w>
isra el
intelig entes,</w>
institu i
individual s,</w>
in ches</w>
im igr
il ho</w>
hum or,</w>
hon ra</w>
happen ing,</w>
gu es</w>
gradu ação</w>
gr ãos</w>
golf inhos</w>
gener ation,</w>
gener ating</w>
ge ome
fis icamente</w>
fing er
fazende iros</w>
fantas tic.</w>
famili ares</w>
fal aram</w>
fac i
fa ther.</w>
et te</w>
estranh o,</w>
esp al
es e.</w>
es cor
err ada</w>
enc ing</w>
en -
embor a.</w>
electric ity.</w>
el y.</w>
econom ies</w>
e y.</w>
e at.</w>
drug s.</w>
dri ver
doc ument</w>
differ ence,</w>
di al</w>
destruc tion</w>
desperd ício</w>
descober to</w>
democrac ia,</w>
de -se</w>
cons pir
com pens
collap se</w>
celul ar.</w>
catastr oph
camp o.</w>
cal i
cachor ro</w>
bro ad</w>
brit âni
bras ile
bran co,</w>
bodi es,</w>
biolog y.</w>
be gun</w>
b led</w>
b ate</w>
aut oriz
atu al.</w>
at ender</w>
aprend eram</w>
appro xi
answ ers.</w>
ambient ais</w>
alcan ce</w>
agul ha</w>
adver ti
ador as.</w>
W ar,</w>
Tex as,</w>
T ro
Syl via</w>
Sis tema</w>
Sh ould</w>
S ys
Princ et
Precis o</w>
P ela</w>
Gover n
Francis co.</w>
Feliz mente,</w>
F aça</w>
Des ig
D aí,</w>
Crai g</w>
Con go,</w>
Chr is.</w>
Char lie</w>
C ou
Bron x</w>
Braz il,</w>
B ob
Atl ant
9 8</w>
" Os</w>
ô ,</w>
í z
í na</w>
í da</w>
w ent,</w>
vô o</w>
us ar,</w>
up ?</w>
un able</w>
tí pico</w>
tre cho</w>
transpar ência</w>
transform ando</w>
trabalh ou</w>
torn á-lo</w>
torn e</w>
tic ally,</w>
ti gh
ter ços</w>
tempor ary</w>
telescópi o</w>
tamanh o,</w>
tam ,</w>
símbol os</w>
séri o,</w>
surpreend ente.</w>
sugg ested</w>
sub úr
su av
strong ly</w>
sp ider</w>
some times,</w>
shif ting</w>
serv ices,</w>
senti dos</w>
sensor i
semi -
selec tion</w>
segu ir.</w>
s mil
rul es,</w>
roc ks</w>
robo t,</w>
ro of</w>
repeti d
rel at
regi on.</w>
ref er</w>
quanti a</w>
qu ente,</w>
pur chas
propri et
proli fer
produ tividade</w>
pres ente,</w>
predic tions</w>
poin t
poder mos</w>
pl ug</w>
pass agem</w>
par tly</w>
par eça</w>
par ents.</w>
p í
out com
ou ço</w>
origin ally</w>
objec t.</w>
o 's</w>
nun ca,</w>
n í
mole cu
mo ver
ment alidade</w>
mach uc
ma tiz
ma m</w>
m es.</w>
lin das</w>
leg s.</w>
la w,</w>
l ers</w>
ke e
k m
iv o.</w>
it tle</w>
inver no</w>
inici ativa</w>
imprim ir</w>
ill a</w>
il y,</w>
ic er
hon or
ho o
hier arch
hal lucin
h az
grav ity</w>
gr as</w>
go ta</w>
glam or
ge l</w>
g g
fing er</w>
fi quem</w>
felic idade,</w>
famili ar.</w>
fal ando,</w>
fabric ação</w>
emprésti mos</w>
em iti
electric ity,</w>
ego íst
ear ning</w>
déc ada,</w>
diplo ma
diagnó sti
di visão</w>
di lem
dep th</w>
conv ul
contribu ir</w>
continu ou</w>
conhec idos</w>
conhec idas</w>
coment ários</w>
coment ário</w>
col is
co ."</w>
circul ar</w>
char t</w>
ch ase</w>
cer em
car cer
capit al.</w>
c up</w>
buil t.</w>
bor r
bon ob
bil l
bi ologia,</w>
bar b
bair ro</w>
avo id
aux ili
auto má
assim ?</w>
ar res
an ni
ameaç as</w>
ajud aram</w>
agrad ec
afford able</w>
ador am</w>
Yor ker</w>
Sili con</w>
Se att
R on</w>
Pr od
P ut</w>
ON U</w>
Mé xico</w>
Mé dio,</w>
Mulher es</w>
Mulher :</w>
Mex ic
Mar te,</w>
Log o,</w>
La b</w>
K ans
Jap an,</w>
Iraqu e.</w>
Hom em</w>
Haiti ,</w>
H or
Franc is</w>
Dal ai</w>
Cre io</w>
Car l</w>
C ir
C .
Be ing</w>
Bang al
Austráli a</w>
As ia</w>
Am ster
Ale manha</w>
A no</w>
8 %</w>
2 5%</w>
" Con
ôni a,</w>
áre a,</w>
àqu ela</w>
wo ke</w>
wh al
way ."</w>
vir .</w>
ven de
veloc idade,</w>
v inham</w>
v ing,</w>
uti li
ultima tely,</w>
tí pica</w>
tremen da</w>
traduz ir</w>
tr y,</w>
to wn
surg ir</w>
suffer ed</w>
su bi
stra ight
str of
spre ad
sk y,</w>
siz ed</w>
six -
si x,</w>
separ ated</w>
s mile</w>
s lic
roup a</w>
result ado.</w>
reserv as</w>
res fri
requi re
refugi ados</w>
re por
rastre ar</w>
r y,</w>
r h
qu ente.</w>
pó len</w>
pássar o</w>
pul m
publ ish</w>
preser ve</w>
pre tend</w>
power ful.</w>
po vo
po ol</w>
platé ia</w>
pic k
phosph or
ph ones,</w>
perig oso</w>
peri od,</w>
pergunt as,</w>
perce ive</w>
per der
per .</w>
peac e.</w>
pa th.</w>
p ound</w>
p istas</w>
organiz ations,</w>
organiz ation,</w>
or bit
or ange</w>
opin ion</w>
open .</w>
oc curr
o grafia</w>
no vid
nic e,</w>
need s.</w>
my th</w>
mu dei</w>
mor to.</w>
mel o
mas ter
map ping</w>
língu a.</w>
lux ur
lou d</w>
labor ator
l ê</w>
kid .</w>
k ick</w>
influ enced</w>
incenti vo</w>
im postos</w>
il s,</w>
igre ja</w>
ici de</w>
humanit arian</w>
gran de
ger ação,</w>
gener ation.</w>
gas to</w>
g as,</w>
fos sil
forç a,</w>
fiz emos.</w>
finance iro</w>
fi bra</w>
fazê-l o,</w>
ex ha
escolh emos</w>
escol as.</w>
escan e
ep .</w>
encoraj ar</w>
encontr ando</w>
el ine</w>
educ acional</w>
econômi cos</w>
décad as.</w>
dom ing
do ar</w>
di ed,</w>
di cos</w>
determin ado</w>
custo mers</w>
contr ário.</w>
contex t.</w>
cont ent.</w>
cont ar-lhes</w>
consider ando</w>
confor to</w>
compre i</w>
complic ado.</w>
compartilh am</w>
col é
clou ds</w>
cer s</w>
capac it
cam era,</w>
bá sicos</w>
bro ther
brea the</w>
br oc
bot tom
blu e,</w>
bene ath</w>
believ es</w>
be ise
be dro
atmosfer a.</w>
at as,</w>
arqui vo</w>
ar ?"</w>
apresent am</w>
appl ying</w>
antibio tics</w>
an ot
an or
americ ana.</w>
alg od
al tura.</w>
al idades</w>
agrad ecer</w>
adv ance</w>
ad amente.</w>
acontecer á</w>
ac ia</w>
a tem
Ye ah
Wikipe dia,</w>
Un til</w>
US $</w>
U sh
Tim es,</w>
They 'll</w>
Sim on</w>
Si x</w>
Secon d,</w>
R ,</w>
Pac ífi
Noru eg
Nor den</w>
Ne il</w>
N one</w>
N av
N ature</w>
Musli ms</w>
Mun do</w>
Lo o
L est
Jan uary</w>
G l
F er
De vel
Com p
Brit ain</w>
Ban g</w>
B lack</w>
A sia.</w>
3 D,</w>
19 2
18 0</w>
00 .000</w>
& g
ú sti
ê-l o.</w>
é t
áb ia</w>
á-l as,</w>
wal k,</w>
w ider</w>
você ?</w>
vo t
vir us,</w>
vend endo</w>
ur sos</w>
under ground</w>
un its</w>
tru th,</w>
tre es.</w>
traz em</w>
tiv as,</w>
tin y,</w>
ti pic
thous and
teacher s,</w>
ta pe
ta ke
t all</w>
survi ve.</w>
suc ess
su re.</w>
strate gic</w>
stati sti
statem ent</w>
sou l</w>
sou be</w>
smar t,</w>
serv em</w>
sens es</w>
segu ir,</w>
se n</w>
scr at
rod a</w>
roc k
rit ual</w>
respos tas.</w>
respon se,</w>
reput ação</w>
report s</w>
remo ver</w>
reduc tion</w>
reason able</w>
realiz ing</w>
re de,</w>
re ais.</w>
program ming</w>
produc tivity</w>
pr ices</w>
plan ,</w>
photograph ed</w>
philosoph y</w>
perman ece</w>
perce beram</w>
pat ent</w>
pass ada</w>
parec eu</w>
palestr a.</w>
organiz ing</w>
og ên
obstá culos</w>
not ável</w>
ni c</w>
nacion al,</w>
n ative</w>
máqu ina,</w>
mus cles</w>
mundi al,</w>
movi e,</w>
mostr amos</w>
mos ?</w>
mor adores</w>
mol ho</w>
mod o.</w>
minut o,</w>
milli on.</w>
mes tre</w>
mencion ei</w>
mem ber
medic ina,</w>
me ta
mar gem</w>
lá p
lá ?</w>
lo ves</w>
liter ally,</w>
list .</w>
ligh ten
liber ar</w>
lev aria</w>
lau gh</w>
l entes</w>
k it</w>
julg amento</w>
jog os.</w>
is lâ
invis ível</w>
intelig ente,</w>
institu tions,</w>
informa l</w>
inf ância,</w>
individual s.</w>
individu al,</w>
inc ub
inau gur
in ch</w>
improv ing</w>
id amente</w>
iPh one.</w>
ho mo
h ang
gu ia</w>
great -
go :</w>
gene ticamente</w>
gene tically</w>
físi co,</w>
fute bol</w>
fron ti
fo i:</w>
fo g
fil ter</w>
fil mag
fi re,</w>
fe ver
fash ion
fab ric</w>
extin ção</w>
expensi ve,</w>
exce ção</w>
every body,</w>
et y,</w>
estági os</w>
escre ve
es bo
err or</w>
ep ,</w>
envol vendo</w>
empreg os,</w>
emerg ed</w>
em bri
econômi co,</w>
e cológ
dre am.</w>
diá logo</w>
dis semos,</w>
dis pers
direc tion,</w>
dire ta</w>
differ enti
differ ent
desig ual
depend ência</w>
den i
d al
cos mic</w>
cor es.</w>
contrac ep
contempor ary</w>
constru ção.</w>
constr o
consist ent</w>
confi ança,</w>
compre h
complex ,</w>
commun ities.</w>
começ armos</w>
climá tica,</w>
cle ar.</w>
ci gar
ci enti
characteris tics</w>
carreg ando</w>
car ing</w>
cab o</w>
c á
brinque do</w>
bol has</w>
bebê ,</w>
aw k
autonom ous</w>
au r</w>
atu almente.</w>
atu almente,</w>
ation ."</w>
at as.</w>
arquite t
ari es,</w>
architec ture.</w>
ar mad
aposent ador
anç as,</w>
alter ar</w>
al um
al ;</w>
aj ust
adolesc ente</w>
acor d
acid ent
a id,</w>
Wol fr
Víde o:</w>
V an</w>
T ed</w>
Stor y
Some body</w>
Sebas tian</w>
Saud i</w>
S wed
S ame</w>
S P:</w>
P ep
P D
P C</w>
O .</w>
Noss as</w>
Ne ur
Mass ach
M ã
M ake</w>
La wr
K atr
It ’s</w>
Go od
Fl ór
Einste in,</w>
Eas t,</w>
De ve</w>
D entro</w>
D R:</w>
Col om
Chris tian</w>
Ch uck</w>
Carne gie</w>
Cap e</w>
C l
B ag
Ar qui
40 %</w>
-l h
,000 -
" eu
" No
well- being</w>
vê-l a</w>
vid os.</w>
ul tra-
ubiqu it
tur n,</w>
tubercul os
trat ado</w>
til ,</w>
ti red</w>
test ,</w>
tent ava</w>
te a</w>
tam entos</w>
t ate</w>
support ing</w>
subst âncias</w>
stud ent,</w>
stre am
st oc
sozinh o</w>
skill s,</w>
situ ação,</w>
simul ação</w>
sh ock</w>
sent ada</w>
sen has</w>
secon ds.</w>
se di
sangu e.</w>
s pot
roub ar</w>
rod o
regr as,</w>
refle te</w>
real m</w>
re forma</w>
re ais,</w>
r ate.</w>
qual idades</w>
qu al,</w>
pô s</w>
pó lio</w>
pur a</w>
public .</w>
profound ly</w>
produz ido</w>
produt o.</w>
present ation</w>
port a.</w>
pl um
pin turas</w>
pin k</w>
physic s,</w>
pesquis ar</w>
perman ecer</w>
perce ived</w>
pequen os,</w>
pengu ins</w>
par em</w>
pag e,</w>
pac ked</w>
ou tu
ol l</w>
n é?</w>
mor a</w>
min a</w>
mil k</w>
metropol it
metr o.</w>
mes s</w>
men or.</w>
men or,</w>
memóri a,</w>
memor y.</w>
me tas</w>
materi ais,</w>
manu f
m ês.</w>
lix o.</w>
leg ado</w>
investi dores</w>
intui tive</w>
intim id
inte lectual</w>
im migr
ilumin ação</w>
illustr ate</w>
il s.</w>
identi fied</w>
i ans</w>
hum ilh
ho w
her o</w>
happen ed?</w>
han ded</w>
grad e,</w>
got ta</w>
glo ba
gené tico</w>
g limp
friend .</w>
fr action</w>
fortun ate</w>
foot age</w>
fe z,</w>
fantás tica</w>
fabul ous</w>
f are</w>
exci tem
estrel as.</w>
estranh os</w>
esp elho</w>
es ia,</w>
es !</w>
er y,</w>
equ ação</w>
edit or</w>
ed -
dolph ins</w>
discover ing</w>
dis co</w>
design er,</w>
cut e</w>
cur sos</w>
cru el</w>
cross ing</w>
cre ature</w>
cr ick
cor da</w>
cor d</w>
cool ,</w>
continu ous</w>
cont amos</w>
construí ram</w>
constru ções</w>
consegu iria</w>
consci enti
confid ent</w>
comport amento,</w>
co ok</w>
climb ing</w>
classi fic
class ical</w>
ci garr
ch al
caus ando</w>
catá strof
cas h</w>
car os</w>
caminh ões</w>
cal led,</w>
bur ocr
bur gh
bu ried</w>
bo a,</w>
bast ante.</w>
bas es</w>
assun to,</w>
as th
ard less</w>
applic ation</w>
aper tar</w>
anúnci o</w>
anima tion</w>
angi ogen
an ônim
amos tr
amos :</w>
amb ici
ali en</w>
ador aria</w>
ad mit
You 'd</w>
Ush ah
Th rough</w>
S A
R ap
Quêni a,</w>
Po t
Pe ace</w>
P ix
Ox ford,</w>
Ok ?</w>
New ton</w>
Mo or
M á
Lor d</w>
Le go</w>
K le
Juli an</w>
Isra el.</w>
G at
F is
E u
E S
D elh
Cos ta</w>
Consel ho</w>
Con fer
Cam bo
Braz ili
Bas icamente</w>
B om</w>
Angel es.</w>
7 .
7 ,
201 2,</w>
2 -
198 0,</w>
10 -
1 1.</w>
1 -
.com ,</w>
-l o</w>
- F
,00 0,</w>
"O k,</w>
" K
ônic as</w>
ônic a.</w>
ê x
z one</w>
wo o
wal k.</w>
vá cu
vir á</w>
vend as</w>
vari ações</w>
val or.</w>
v os,</w>
us ava</w>
univers idades</w>
unfortun ately</w>
u el</w>
tráfe go</w>
trop ic
treat ment,</w>
tre e.</w>
transl ated</w>
this ?"</w>
terr íveis</w>
tend ency</w>
tem pos.</w>
surg em</w>
sup por
sub tle</w>
su icide</w>
stay ing</w>
sorr y,</w>
som os.</w>
smart phone</w>
sm all.</w>
slid e,</w>
sh in
sex y</w>
self- assem
sec tor,</w>
se ção</w>
scar y</w>
saté lites</w>
sal ário</w>
run ,</w>
ri a.</w>
resist ance</w>
remain ed</w>
relacion amentos</w>
rece beram</w>
re médio</w>
re invent
r ing
quar ters</w>
qu it</w>
pro vo
prim or
preocup a</w>
pre miss
practic e,</w>
por tion</w>
popul ations</w>
pon ha</w>
po mb
po et</w>
pne um
perd i</w>
par aí
paint ings</w>
optim istic</w>
olog ista</w>
o fi
no tici
neurôni o</w>
neur on</w>
navi os</w>
nasc i</w>
mág ico</w>
muçulman os</w>
milh ões,</w>
midd le,</w>
meth ods</w>
materi ais.</w>
main tain
ma triz</w>
ma inst
m m
lingu agem.</w>
lingu agem,</w>
lim b</w>
li a</w>
lead ers,</w>
lay ers</w>
la ho
l t;
l inh
l an</w>
kill s</w>
k noc
jus tamente</w>
jog am</w>
jell y
is to
investig ar</w>
interac tions</w>
instal ação</w>
impress ora</w>
immedi ate</w>
imag ing</w>
id es,</w>
id ay</w>
i legal</w>
ho mos
heró i</w>
har m</w>
gê me
gráfi co,</w>
gir l.</w>
gas tos</w>
g a,</w>
fro -
for th,</w>
for est,</w>
fo tos,</w>
flu id</w>
fi ber</w>
famíli as.</w>
fal ado</w>
existi am</w>
espéci e,</w>
esper am</w>
es cop
ep ing</w>
empres as.</w>
empres ari
empre go.</w>
emis são</w>
em baixo.</w>
elder ly</w>
econom ista</w>
don ’t</w>
do ors</w>
dist ância,</w>
dist antes</w>
dis trac
diri am</w>
difíce is.</w>
di ame
detal he</w>
desco bre</w>
desc endo</w>
decision -
decis ões.</w>
de part
de ar</w>
d aqui,</w>
cuidad osamente</w>
crow d
cost ,</w>
contr adic
consci entes</w>
conect ada</w>
conduc ted</w>
con tei</w>
complic ated.</w>
compe te</w>
col una</w>
cobri mos</w>
co up
civ is</w>
circunst âncias</w>
ci .</w>
chi ef</w>
cer tamente,</w>
care er,</w>
but ton</w>
brilh ante.</w>
bon ito.</w>
be ings,</w>
bar ata</w>
avi ão,</w>
atu al,</w>
atmosp here,</w>
atac ar</w>
ari a?</w>
apon tar</w>
apl ica</w>
ap ping</w>
antibióti cos</w>
ant en
am ent</w>
along .</w>
along ,</w>
aliz ing</w>
al ug
al li
ajus tar</w>
air port
ad a?</w>
acompanh ar</w>
ach es</w>
ac re</w>
W ide</w>
V an
Us amos</w>
Ti p
T ai
Squ are</w>
Shakespe are</w>
Sh angh
S av
Rog er</w>
P y
Ok laho
O per
N ik
M ach
M A</w>
L. A.</w>
L iter
L ap
L ang
J .</w>
IB M</w>
Harvar d,</w>
H il
F .</w>
D ol
D in
Chic ago.</w>
Cam bridge</w>
Bos ton.</w>
4 50</w>
1 40</w>
1 2.</w>
& lt;
" Where</w>
" Quando</w>
ís semos</w>
é tric
é simo</w>
é m-
âni a,</w>
âne o</w>
â mb
árv ores.</w>
á gio</w>
zon as</w>
z i
you th</w>
w et
visualiz ação</w>
vin dos</w>
vej am,</w>
ve :</w>
vaccin es</w>
us t,</w>
ur so</w>
ur es.</w>
unpreced ented</w>
univers al.</w>
ug ly</w>
trag édia</w>
tr in
toge ther
to pher</w>
tir o</w>
time ?</w>
thos e,</w>
termin a</w>
te mente</w>
te iro</w>
tar ug
tar get
tamanh o.</w>
surr ounding</w>
surger y,</w>
sup pos
su ce
ste al</w>
st ates,</w>
spee ch,</w>
spea ks</w>
sil ence</w>
she et</w>
shar p</w>
sel y</w>
se min
s é
s ni
[...]
